memory_initialization_radix=16;
memory_initialization_vector=
ff86,
000e,
002f,
011f,
ff93,
fe98,
febe,
fddd,
014c,
fe1a,
0162,
fff1,
fea6,
ffcc,
ffcb,
000a,
ffa1,
fd92,
002d,
ffc7,
00ac,
001d,
00a1,
fff6,
fea1,
ffb3,
004a,
ff9c,
fef0,
ff09,
01e6,
018f,
fe8d,
ff3a,
fece,
feaf,
017d,
fff0,
ff76,
001a,
016a,
021b,
fe47,
016c,
fe9b,
ffa0,
fff5,
004f,
fdd0,
0107,
0033,
0084,
003d,
feb8,
ff7a,
fe1a,
ffb3,
feb2,
fef0,
ffa6,
ff8c,
fe18,
fe6a,
ff5a;
