memory_initialization_radix=16;
memory_initialization_vector=
0146,
0108,
007c,
004f,
ffda,
002d,
0063,
ffa8,
0050,
00de,
0046,
0088,
00df,
fff5,
00d0,
0141,
00c3,
00a8,
ffd1,
0030,
013c,
ffd3,
0055,
ffb4,
ff66,
00d4,
00c3,
ff3e,
ff6f,
ffa4,
fee5,
ff61,
00b5,
ff9a,
00b9,
0013,
ff17,
0060,
ffc6,
ff70,
0089,
ff5c,
ff99,
0065,
0006,
ffff,
ff3e,
00f6,
002e,
ffe6,
001f,
ffb9,
006e,
00f1,
ff7e,
0063,
0064,
ffc0,
ffd3,
ff2b,
ff5e,
00d9,
0061,
ffc6,
0065,
01cb,
000f,
001e,
0095,
fff2,
ff87,
00d2,
0004,
feea,
fffa,
ff25,
004a,
011b,
ff75,
0000,
ff82,
0111,
0005,
003c,
ff5a,
ffc6,
ffd6,
fff0,
ffe1,
008c,
0045,
ffac,
ff4e,
ffc6,
00a4,
ff0e,
ffce,
00a0,
fffd,
ffe2,
fff1,
ff2d,
ffe7,
ffc1,
002a,
005d,
ffd1,
0024,
ff44,
00ab,
ff3c,
ff97,
ff4e,
0028,
008e,
ff8e,
001e,
fff2,
ff35,
ffd1,
00be,
ffe8,
0097,
ffdb,
00d5,
0179,
0047,
011b,
007a,
01a7,
0014,
0146,
ff7e,
0014,
feb7,
fed8,
ff61,
feef,
0044,
fff9,
00b2,
0032,
0049,
0026,
00fc,
0083,
ff58,
ff78,
004d,
ff71,
008d,
ff98,
00b3,
ff80,
ff34,
ff4b,
0063,
0033,
00c8,
fff3,
0002,
ffc8,
0016,
ff30,
ffdc,
003b,
ffcf,
0007,
ff39,
00ca,
ff29,
001c,
00a3,
0071,
0083,
ff58,
ff3a,
00f6,
0043,
0007,
00fe,
0001,
ff56,
ff3a,
0005,
0115,
002a,
ff79,
0128,
fff6,
ffd5,
01ab,
007c,
ffe4,
0139,
0152,
0019,
ff6e,
ff9b,
ff96,
001a,
ffe1,
ffd4,
fe81,
ff20,
ff83,
fee7,
ffe6,
0033,
ff10,
ff68,
ff9b,
ffe5,
ff71,
ffd0,
010d,
00e5,
ff52,
0040,
ffac,
ff08,
007a,
fff5,
00a8,
ff4f,
00da,
00c5,
0026,
006b,
005e,
00a8,
0080,
ff6a,
ff68,
0086,
ff57,
ff84,
ffd6,
ff34,
005d,
ffef,
ff1e,
ffb6,
ff9e,
0016,
0078,
fff2,
ff66,
0025,
0119,
0063,
00ba,
009f,
006d,
009e,
00f2,
00b3,
ffd9,
0098,
0164,
ff20,
fffc,
ff81,
ffe8,
fe82,
002a,
fe82,
ff5d,
008a,
0045,
0071,
ff3f,
ff3f,
ff72,
ffe8,
ffaa,
008b,
ffa3,
ff59,
00f7,
016a,
0165,
00a9,
00c7,
fff6,
00b7,
ffa0,
0108,
fff6,
005c,
0016,
0049,
fff5,
ff8f,
ff9c,
00d5,
00c4,
0109,
0012,
005b,
ff09,
0094,
0049,
fefe,
008a,
0087,
ff40,
fefc,
ffa9,
ffbc,
0057,
ff65,
ffb0,
00b4,
006e,
ffea,
00b0,
014b,
0087,
008a,
008f,
009b,
000d,
0019,
ff78,
ff50,
ffbe,
fed8,
0038,
fe54,
fed4,
0005,
ff68,
ff9b,
fefb,
ffc4,
ffc9,
0102,
00c0,
ff87,
000f,
0067,
014b,
00f5,
0107,
ffbb,
005c,
016d,
0030,
009e,
ffa3,
006f,
ffa1,
0043,
00c0,
fff2,
00c7,
0103,
0077,
ff66,
0002,
003c,
0086,
00ee,
00cf,
ffcf,
ff45,
ffed,
006a,
ff31,
00af,
ffa4,
0026,
fed2,
ff35,
007a,
fed0,
ff99,
ff3e,
ffce,
ff54,
003e,
0123,
013a,
00f1,
001f,
0042,
ffc1,
00ad,
ff82,
ff0c,
003d,
ff4b,
fed4,
ff2d,
001c,
0041,
00c2,
00e2,
ff17,
00e7,
004b,
000b,
00c1,
0064,
ff95,
0073,
ffd0,
0093,
00a0,
ffcf,
004f,
0144,
012c,
0127,
0098,
0106,
00ef,
ff73,
0032,
0100,
00ca,
ffe0,
0114,
ff99,
00d3,
003a,
0011,
0025,
00fa,
0000,
0007,
ff3c,
ff02,
00be,
0031,
ff2c,
ffa1,
fea9,
ff96,
004e,
ff59,
fe9e,
ffc2,
0073,
ff6f,
ffad,
0105,
0134,
0036,
010e,
ffc0,
ff7d,
fe9d,
ffea,
0050,
ff9f,
fef6,
0050,
0022,
ff81,
ffb0,
0066,
ff77,
ff21,
00c6,
00f3,
0056,
ff7f,
ffe9,
00e0,
00bd,
01a8,
ffc4,
00fd,
0015,
014d,
010b,
006b,
ffca,
0146,
ffa2,
ffe1,
0014,
006f,
00d3,
007a,
0006,
00c9,
ffa0,
0126,
ff97,
005b,
013e,
0086,
0106,
0111,
ff9b,
00a6,
fff9,
ff98,
0004,
004c,
ff90,
004b,
ffe6,
ffb1,
0038,
ffa4,
0094,
0036,
003c,
01a5,
fff5,
ffa7,
001d,
ff2a,
0010,
fefe,
fef3,
ff49,
ff55,
006c,
ff36,
0025,
0026,
0099,
010b,
008c,
000c,
0122,
00ff,
ffc7,
ffcb,
ffd5,
0023,
0163,
0052,
003f,
0032,
0137,
012c,
ffc0,
003e,
0145,
0055,
ffc7,
0163,
ffee,
ff92,
00ab,
0004,
ff85,
005c,
010e,
0162,
ffdd,
00e7,
0066,
0163,
003f,
ff61,
ff47,
fff7,
0001,
0027,
fecc,
fec7,
ff51,
ffc0,
fe99,
fe82,
0015,
00cc,
011a,
0155,
ff9f,
00ed,
0151,
0031,
feea,
ff4f,
fe9c,
0070,
fff4,
ff85,
0092,
ffbd,
ff09,
ff1e,
009c,
00f5,
00d4,
005b,
001c,
0130,
0049,
006a,
0075,
012f,
016c,
01c5,
008b,
ffc5,
00f8,
0098,
00d3,
0062,
ffd9,
00a6,
ffbd,
008d,
ffb1,
00a9,
00ec,
00fa,
00cf,
016f,
0068,
0090,
0078,
0127,
0065,
0144,
ffd0,
ff56,
000b,
0036,
ffd9,
ffeb,
fee0,
008f,
ffd3,
ffdf,
008a,
0041,
ffa2,
00da,
0146,
0049,
00c7,
009c,
ff79,
005f,
0088,
ff94,
fec0,
fffc,
ff82,
ff97,
00a2,
ffdd,
ff9e,
00f3,
00bd,
0069,
0050,
0026,
ffaf,
00fc,
ffee,
00af,
002f,
017b,
00ca,
00fe,
0148,
00fd,
fffc,
0146,
00fd,
00dd,
0177,
0092,
0171,
004c,
00bd,
013b,
0173,
00e9,
0003,
0081,
011d,
0077,
ffa9,
00b6,
fffd,
002c,
00e8,
002e,
005a,
00e8,
ffd6,
feec,
00cd,
00ba,
0018,
0084,
ff3e,
ff9f,
ff17,
ffd3,
0009,
000e,
007e,
00d6,
011e,
ffc3,
ffc9,
001d,
ff54,
ffd7,
00c6,
ffdf,
00bb,
00ba,
ff18,
0069,
0041,
0071,
ff93,
ffb6,
00e2,
00c8,
0176,
ffc4,
002b,
01a5,
0021,
01cd,
0094,
0107,
004b,
0156,
0193,
00ad,
0073,
01a2,
0185,
004b,
fff3,
ffba,
00a3,
010b,
003e,
ffd6,
ffe7,
0185,
00da,
005f,
ff96,
00c6,
0064,
0076,
ff3d,
007b,
ff82,
ffe6,
0096,
ff71,
004a,
0010,
ff5f,
0069,
008d,
ff54,
ffbf,
0081,
0139,
0091,
ff96,
00b4,
ff66,
ffaa,
ff3f,
00c3,
0083,
00ba,
fffe,
ffbe,
ffc8,
ff33,
ff55,
ff51,
ff66,
0080,
ff80,
001f,
ff97,
004d,
0004,
ffe2,
01aa,
0176,
ffd2,
00aa,
0081,
0131,
0165,
0113,
0147,
005e,
002c,
01b0,
ffd0,
0122,
018d,
000c,
0006,
00d9,
001e,
ffc2,
0169,
0029,
00c9,
ff86,
0130,
010f,
009b,
00f1,
0083,
fefd,
0000,
ff76,
0059,
fecd,
ff9e,
fef9,
ff50,
00a8,
0093,
0060,
00aa,
00d9,
00e0,
ffcd,
ffd6,
ffd1,
0072,
005a,
ff67,
ff0d,
0077,
ff4c,
0062,
0025,
ffa3,
00f2,
ff8e,
ff74,
ffe7,
00a3,
0160,
ffe5,
016c,
00ab,
fff2,
011c,
0142,
00c7,
00aa,
ffea,
00c5,
00f4,
01ca,
0103,
0164,
0098,
017a,
018c,
ffe4,
0126,
006b,
00e0,
fff5,
009a,
003a,
015e,
ffde,
00c9,
00bd,
0042,
003c,
00d0,
ff6d,
fff9,
0058,
fedd,
0060,
0070,
00a6,
ffc8,
ffe7,
ff32,
ffab,
ffac,
fff6,
0150,
ff4c,
ff53,
ff12,
00ac,
0090,
ff8b,
0018,
ff9f,
ffc7,
00b7,
ffed,
0023,
00ad,
0116,
00d9,
00d7,
0038,
0061,
00b5,
00bd,
0109,
0053,
001b,
0022,
ffbb,
0150,
fff8,
005c,
01dd,
0093,
0129,
0000,
01bf,
01a7,
0035,
000d,
017e,
004e,
00f0,
00fc,
00dc,
ffc7,
0122,
00ae,
007a,
fffc,
0061,
ff8b,
0010,
005e,
ff1a,
ff22,
fef0,
fee4,
0073,
002f,
002a,
0029,
ffdd,
ff18,
00a8,
0174,
0112,
fff8,
0132,
009f,
ff93,
ffa5,
ff8c,
004b,
00ae,
0018,
ff84,
ffdd,
ff80,
0039,
007c,
ff76,
ffd0,
00a9,
0049,
fffc,
fff2,
0129,
0031,
009d,
015a,
01a4,
019c,
010e,
0151,
0198,
007f,
00a1,
0101,
ffff,
01ad,
00da,
005e,
ffcd,
ffd1,
006c,
ffb7,
ff66,
ffec,
ffb3,
00af,
012e,
0007,
00f5,
0088,
000a,
00c5,
ffff,
ffa6,
ff66,
ff7f,
0058,
0061,
ff8f,
ff49,
ffa4,
ffee,
00dd,
00c8,
0068,
0009,
00ad,
00cc,
00cf,
ffa3,
feca,
fee2,
ffcb,
004e,
ff68,
0128,
006f,
ffae,
00da,
ff27,
0084,
0033,
ffaf,
00ae,
0083,
ffe7,
0089,
00c0,
009e,
000f,
0193,
001a,
00a8,
00b8,
005e,
01be,
00fd,
ffba,
fff8,
0047,
00a4,
0098,
ffe4,
ff6d,
ff95,
ff84,
00ac,
010c,
0129,
ffeb,
00cc,
fffe,
ff8d,
005e,
00ca,
0082,
00c4,
ff65,
00cd,
ff00,
fed7,
ffd0,
ff2d,
ff48,
ff4c,
00a0,
00db,
00b2,
0124,
01a3,
ffb0,
009a,
ffe5,
0063,
0038,
ff2f,
0010,
0018,
00f0,
0052,
0037,
ffc2,
ffa7,
0009,
0114,
ffe7,
00fa,
ffee,
ff8d,
ffbc,
00f0,
0062,
008a,
ffec,
0044,
0027,
fff2,
ff92,
0078,
0095,
003d,
0156,
ffc4,
00f2,
0005,
ff89,
007f,
0033,
001c,
00fd,
ff55,
0049,
00c2,
00e0,
00a1,
ff7e,
ffff,
ff2b,
00af,
008a,
ff27,
ffdb,
ff69,
00bf,
0040,
ff69,
005f,
ffa6,
ff4e,
ffb7,
0095,
ffaf,
ff76,
012f,
0158,
ffc1,
004f,
ffca,
fff9,
ffe1,
ff1a,
0070,
0060,
0094,
ff34,
0058,
ff5f,
ff6a,
00ee,
0062,
0090,
00e8,
fff7,
ffb8,
0073,
ff90,
0001,
0081,
ffea,
00f5,
0073,
0152,
0061,
00e6,
ff7b,
0117,
fffe,
00c6,
feee,
ff84,
0063,
002e,
0058,
0093,
ff08,
00b3,
ffa9,
ffd5,
00e1,
ff78,
0076,
002d,
00b1,
ff1d,
00bd,
0057,
ffdb,
0036,
0008,
fee8,
ffce,
ffda,
ff5c,
ffe2,
ff6c,
ff25,
00f1,
0076,
00ce,
0026,
ff3b,
005e,
ff46,
00a5,
00ac,
ff99,
ffc7,
010a,
0061,
0065,
00f7,
009f,
ffcc,
ffda,
ff3e,
0074,
ffaa,
0058,
0054,
fff4,
00c7,
ffb7,
00ba,
0083,
0035,
ffc3,
0097,
ff73,
0082,
007e,
0070,
ff2e,
006c,
fffb,
ff12,
ffd5,
febd,
ff3a,
fed2,
ff02,
ffd9,
0032,
ff28,
ff98,
00d0,
0091,
003d,
00ae,
ff08,
004f,
ff47,
00bf,
ff19,
ff91,
ffc3,
ffff,
ff10,
007f,
0074,
ff8a,
0064,
009d,
0107,
00e5,
ff55,
0002,
ffd8,
ff92,
ffc9,
ff45,
ffb7,
00ff,
ff36,
0079,
ffdd,
007f,
ff84,
0094,
ff22,
ff7a,
ffbf,
ffa9,
ffdd,
fff4,
ffa0,
ff87,
ff2c,
ff92,
ff5e,
00d4,
fefd,
004f,
ffb8,
0089,
feb0,
ff6e,
ff19,
ff6d,
ffda,
ff9f,
fffd,
fec3,
ff95,
ff03,
0014,
ff13,
ff04,
0082,
ff74,
0074,
ff7a,
febd,
ff93,
feef,
00b4,
ff4c,
ffe0,
00b3,
ff5e,
ffd0,
009f,
ff98,
fffd,
ff63,
0107,
ffe4,
ffc3,
0026,
ff43,
0011,
00a5,
0070,
ffe7,
0083,
00a0,
0054,
ff6b,
ffd1,
00d4,
ff91,
00ab,
ffb4,
001d,
0055,
ffb2,
ff5a,
ff0f,
fefa,
ffc5,
ffa9,
ff49,
feff,
ff34,
ff9f,
008a,
fff2,
ff46,
fe69,
ffbb,
ff6a,
ffb6,
ffd7,
ff88,
ffb9,
ffc2,
ff1c,
ffb2,
002f,
ff89,
fed1,
feff,
0024,
ffbb,
ff87,
feaf,
ff8a,
ff85,
00b6,
005d,
ff21,
0061,
00b4,
ff36,
0057,
0084,
009c,
00a2,
ff8d,
ffc2,
ff89,
0084,
ff6a,
00a5,
ff91,
00f6,
0116,
00e4,
0016,
009c,
ff55,
ffbd,
0081,
0093,
00e1,
0094,
007a,
ffac,
ff67,
ff5f,
ff17,
fef8,
004c,
002a,
ff4e,
006c,
fef3,
006e,
ff7f,
fea5,
fe53,
ff7f,
ff14,
fffd,
ff6b,
fff0,
fef1,
fea1,
ffb5,
ff11,
ff52,
ff76,
fe8a,
ffe7,
ffe7,
ff16,
ff98,
ff0e,
0042,
fee4,
fefa,
fee7,
0028,
00d1,
0095,
0073,
00b3,
ffcf,
008b,
0036,
ff16,
0065,
008b,
ff5b,
016a,
006f,
ff72,
006f,
ffe5,
fffc,
0044,
ffcc,
ffff,
ffad,
ff41,
0067,
0033,
fffb,
ff19,
002a,
ff09,
00c4,
ff92,
ffc0,
fe96,
fffb,
ff0d,
fec9,
fff0,
ff70,
ff03,
fea2,
ffa4,
fe70,
ff9d,
fe55,
fe9e,
ff01,
fe61,
ff91,
ff00,
fec2,
ffa3,
ff4b,
fe91,
ff8e,
ffac,
ffc7,
ff2e,
ff44,
0022,
0024,
ffe1,
ff75,
ff8a,
0037,
ffb5,
0006,
0097,
00e1,
ff9a,
ffa4,
ffd1,
0001,
0026,
fff6,
000c,
00dc,
00f5,
0128,
ff6a,
00e3,
ff99,
00ac,
001b,
0114,
00e8,
00fe,
005b,
006a,
ff61,
ffa9,
ffd0,
ffa4,
0031,
ff96,
ff75,
ffd2,
fec2,
0024,
0024,
0036,
fe75,
feb3,
fead,
001c,
ffa2,
ff7e,
ff2e,
ffa9,
ff60,
ffde,
fe88,
ff00,
fec9,
ffc4,
febb,
ff4f,
ffc6,
feb3,
ff7d,
fe89,
feb8,
ffbb,
0031,
ff46,
0088,
ff13,
ff7e,
ff56,
00a0,
ffd8,
fef7,
ff2b,
00bb,
0088,
00b1,
0071,
ff25,
005a,
ff1a,
ffbb,
0075,
fff3,
006e,
ff56,
ff5d,
00db,
ffe0,
ff75,
ff48,
00cd,
0034,
ff5f,
0013,
ff63,
ffdc,
ff72,
ffaf,
ff5c,
ffab,
ff01,
feb9,
fe59,
ff9b,
ffad,
fe1f,
fff7,
ff8f,
fe6a,
ffe5,
fe4e,
ff72,
ff07,
fe14,
ffa4,
fe20,
fe9e,
ff89,
ff90,
ffa7,
ff55,
fed6,
fec4,
ff92,
ff5a,
ff2a,
001e,
ff11,
ff46,
ff83,
ff16,
ff53,
feac,
0055,
0072,
0074,
ff4e,
ff56,
00f0,
003a,
ff8b,
fff6,
ff9e,
007c,
fff1,
00f5,
ff88,
ff66,
ff4e,
ff8a,
0047,
00d4,
001e,
ff0d,
0016,
ff41,
ff93,
00a5,
ff61,
00a9,
ff84,
ff66,
008b,
ffbd,
0042,
ff1d,
fe7a,
ff2d,
ff90,
ff3d,
ff2f,
feac,
ff1a,
ffd4,
feff,
ff5a,
ff10,
fe33,
ff64,
ffcd,
000a,
0011,
ff0d,
feba,
0003,
ff30,
0045,
005a,
001c,
ff8d,
ff3b,
ff12,
000e,
ffa6,
00b7,
0016,
ff6d,
ff05,
ffae,
ff83,
ff8f,
006b,
0045,
0018,
ff38,
ff29,
ff6f,
005e,
ff4a,
ff5d,
ffe5,
ffff,
ff95,
0027,
ff30,
ff7e,
ff6a,
ff08,
0070,
ffc1,
ffe3,
0046,
00ba,
ff6d,
ff4f,
ff0c,
ff74,
ffa7,
fea0,
ff9d,
ff9b,
ff89,
fefb,
fee9,
ff49,
ffaf,
fe27,
fec6,
ffae,
fe70,
fed9,
ffba,
ff73,
ffd6,
ff15,
ff88,
ff79,
fedc,
fe85,
ff61,
fe72,
ff6a,
ff43,
0065,
fee2,
000c,
001b,
ff38,
00b1,
ff2b,
fed4,
ff3c,
009e,
ff21,
ff81,
0050,
00ba,
00e4,
00f3,
0036,
0076,
0036,
ff60,
ff3f,
000e,
ff28,
008d,
ff46,
000e,
0001,
ff36,
ff10,
ff82,
ff27,
fef7,
fff0,
0041,
ff1c,
00b8,
ff5e,
ff0b,
ffcf,
ffe3,
feff,
ff4a,
fe4c,
feb6,
fe96,
ff0d,
fe3c,
ff9a,
fe86,
ffd4,
fee5,
fe28,
feb2,
febc,
ffc7,
ffcc,
ffe8,
ff76,
ff46,
0020,
fe7c,
0013,
ff26,
ff99,
002a,
ffc8,
ff21,
009c,
ff84,
ff89,
0054,
ffb4,
00ad,
00fb,
0045,
ff8d,
0053,
0085,
00bf,
fff6,
ffc8,
ff42,
ffc8,
fee1,
00a0,
ffb5,
0010,
ff86,
0039,
0106,
0033,
ff0f,
ff5c,
ff26,
ff78,
ff52,
00b3,
0066,
00a7,
0022,
ffac,
00a2,
ffe4,
0004,
0053,
ff98,
ff4d,
ff20,
fea1,
ffc4,
ff48,
fe7f,
ff20,
fe13,
feb5,
fe91,
fee4,
fde0,
ff81,
ff5e,
fe44,
fe97,
ff80,
ff59,
fe6d,
fef3,
ff35,
ffb5,
00c0,
fedc,
ff36,
00a9,
ff34,
00e6,
00ad,
ff8d,
00fa,
00b8,
0030,
012c,
0092,
ffab,
0150,
fff5,
006a,
0077,
ffe2,
fff2,
0103,
0125,
0096,
fffe,
0053,
008f,
008f,
0048,
ff26,
ff6b,
00da,
ff5f,
ff4b,
feb9,
feb7,
007b,
0073,
0089,
000c,
fee2,
ff81,
fea3,
ff17,
ff60,
fe2d,
fede,
fe6f,
ff8b,
ff7b,
ff10,
ff8d,
ff40,
feda,
ff78,
fe82,
ff06,
feb2,
feaa,
fee6,
ff8a,
0012,
fe90,
ff54,
ff9c,
008f,
ffea,
ff5e,
ff57,
00d3,
0047,
ff15,
0078,
0154,
ffaf,
00ea,
00cd,
0149,
0128,
00bb,
0152,
00e7,
0108,
ff90,
007b,
fff4,
0145,
ff9a,
ffd9,
0108,
00eb,
ff69,
0026,
0079,
ffed,
ffa1,
0001,
ff5f,
ff78,
ff3f,
fed7,
ff32,
fef0,
ff39,
fef4,
ffbf,
ff8b,
ff72,
fe26,
ff94,
fe26,
fe82,
fdd2,
feb0,
fe97,
ff3b,
fdd8,
fde7,
ff8a,
fec9,
fdfa,
fece,
ff4b,
fea4,
fed8,
fef3,
0007,
ff93,
0065,
ff88,
ff63,
ffa0,
ff89,
ff51,
0071,
ffb2,
00a7,
0054,
ff98,
fff4,
ffdd,
0122,
0018,
008c,
0146,
fffd,
00cf,
ff3a,
ff84,
00a9,
0030,
00e7,
ff71,
ffb7,
00f3,
ffce,
ff9e,
00a0,
0062,
ffbe,
0063,
ff7f,
ff52,
febc,
ff92,
009d,
00ad,
00a3,
ff08,
0022,
fff1,
ff01,
fe1e,
fee3,
ff72,
ff65,
fe29,
fe69,
fdac,
ff8e,
fe0e,
ff34,
fe63,
fe89,
fe59,
fefd,
fe37,
ff02,
fe83,
fe57,
0011,
ffe4,
000b,
ff7c,
ff1a,
00c1,
ff35,
ff4c,
00c7,
ff95,
ffb1,
fff8,
00b8,
0070,
0059,
0073,
0039,
0179,
004a,
ff83,
ff84,
00b4,
0026,
fff1,
009f,
ff93,
0109,
011b,
fff1,
00b1,
0028,
003e,
ff88,
002f,
ff3f,
0097,
ffc6,
ff4e,
003f,
ffae,
fedd,
0070,
fefd,
ff55,
ff9a,
fef1,
ff1d,
fede,
fec1,
feb1,
ff17,
fe3e,
fda6,
ff0f,
fe1f,
fdb4,
ff74,
fe2d,
fe16,
fe62,
fe3f,
fed0,
ff59,
ff1c,
ffff,
fe98,
00aa,
ff5e,
ff44,
0044,
ff4a,
0009,
ffa8,
00bc,
0091,
0015,
010e,
00d6,
00fc,
ffeb,
0175,
00db,
ff9e,
00a2,
0001,
0027,
0025,
0028,
004f,
0124,
ffec,
002c,
0087,
0067,
0108,
ffa6,
ff5b,
002a,
ffd7,
feb4,
fff6,
feee,
004a,
ff55,
000a,
006a,
ff90,
0028,
0066,
ff23,
ff28,
fe3e,
fe0a,
feb8,
fdbe,
fd18,
fd66,
fe59,
ff22,
fd7f,
ff41,
ff06,
febe,
fec9,
ff9f,
fdec,
fe51,
001a,
ff15,
0068,
fee8,
ff63,
ff99,
ff38,
fee8,
ff97,
00ad,
feec,
0014,
00e0,
ffa0,
fff8,
0029,
0051,
0086,
017f,
0020,
00f1,
ffaa,
00d5,
0153,
0062,
00d6,
00c7,
00e9,
010f,
010b,
0157,
0157,
0145,
002d,
ffec,
006f,
0071,
ff96,
ff8b,
ffa7,
fea8,
0013,
ff6a,
ff6a,
ffa0,
fee4,
ff2e,
ff2b,
feab,
fddc,
fec5,
fe57,
fe9b,
feb7,
fe85,
fed9,
ff27,
ff2c,
fe78,
ff93,
ff6c,
ff35,
feb0,
fff3,
fe91,
fe48,
ffa1,
ff8e,
0017,
ff14,
ff52,
feea,
ffb4,
ff68,
ff3b,
ff64,
ffd1,
00c0,
0177,
01ac,
0040,
00af,
ffbc,
ffd1,
ffa3,
0043,
00c1,
0075,
018e,
fffa,
005b,
00d7,
00af,
015f,
ffd0,
014e,
011d,
ff8b,
ff51,
006c,
ff8e,
0092,
0030,
fe6c,
ffc8,
ff18,
ff24,
fe9f,
ff4d,
0028,
ff27,
feb4,
fedf,
fec8,
fe0c,
fd7f,
fe81,
fd43,
fe0b,
ff20,
ff58,
fed8,
fe7c,
fe7b,
fe14,
fe9e,
fea7,
ff7a,
fee4,
fe5f,
fe7e,
ffb9,
fffc,
0045,
001f,
ffb3,
008b,
00ab,
0093,
0068,
00b7,
0126,
00fb,
ffcf,
017c,
0161,
00c3,
00d5,
ff9a,
0133,
ffac,
0054,
01fe,
0135,
00ae,
00f3,
00da,
01a5,
009f,
007c,
01a0,
0082,
0100,
011a,
0089,
00d0,
fee8,
004a,
fecb,
ff40,
ff92,
ff93,
ff5d,
feea,
ffdb,
fe0b,
fe71,
fe27,
fea5,
fd76,
fd4c,
fdca,
feb1,
fe8e,
ff76,
fd9c,
ff7c,
ff89,
ffdf,
fe8c,
fe2b,
feb1,
fe50,
ff9e,
fe44,
ff2f,
003d,
fea5,
ff04,
ff0b,
ff2e,
ff35,
ffa5,
ffa0,
00af,
ffcd,
ff9c,
ffe3,
ff8b,
0117,
ff97,
0129,
00f8,
ff5b,
0019,
ff5f,
01c1,
00da,
006c,
0003,
003a,
013f,
0098,
01b5,
003c,
00bc,
00fe,
017a,
ffe8,
0084,
ff10,
ff50,
ffa3,
ff9c,
0005,
fed6,
fedf,
febf,
ff12,
ffda,
ff66,
ff5d,
fedd,
fd52,
fec0,
fed7,
fd82,
feec,
ff8e,
fddf,
ff47,
fe32,
ff2d,
fee9,
ffb5,
ff3b,
ff21,
fe49,
ffdf,
ff56,
fff1,
ff25,
ff02,
0079,
ff0d,
0008,
0087,
ff41,
007a,
ff8e,
ff79,
ffae,
ffb5,
ffc3,
ffca,
ff99,
0051,
00a9,
fff8,
0126,
00ee,
01a4,
0110,
00fb,
0035,
0018,
010e,
011c,
00aa,
00cf,
ffdc,
00f4,
0180,
ff5f,
00d4,
ff12,
0014,
004f,
fee6,
ffc4,
feb8,
fec7,
ff8d,
fe3b,
fef4,
fda8,
fe0e,
fdd1,
fea9,
fe6f,
fe48,
ff75,
fef7,
fef2,
fec6,
ff17,
fedf,
ff29,
fe39,
ff64,
fff5,
ffaa,
ff6a,
fecc,
0089,
ff1a,
fefa,
ffbb,
ff15,
ff22,
ff6d,
ffa3,
0006,
ff7c,
00a8,
ffbd,
ff35,
0023,
00b5,
005e,
ff06,
00e7,
ff88,
ffd1,
0104,
022c,
0099,
0084,
00e2,
0036,
00e1,
00ff,
0146,
0007,
0169,
0153,
0027,
006c,
0066,
ff35,
ff2b,
ff99,
0033,
fed7,
0059,
ffcd,
fe93,
ff2d,
ffbb,
febc,
fe1a,
fe85,
fef5,
ff66,
fefd,
ff85,
fe8d,
feb0,
fec5,
fff5,
fe6f,
ff9e,
fe85,
fe89,
ff80,
0010,
feb4,
006b,
0048,
0023,
fffd,
ff87,
000f,
00f0,
00f9,
0120,
010a,
ffe8,
ffbe,
ffa2,
ff41,
fffa,
0034,
ff1b,
ff74,
0058,
000b,
ffee,
0200,
01c1,
0066,
00e2,
0112,
0182,
00c4,
00b7,
00b3,
0142,
00e0,
0092,
00e8,
004c,
00a5,
00b9,
ff3f,
0036,
ffcc,
ffcf,
00de,
ff14,
fefb,
fe68,
fed3,
fe0e,
fe46,
fe9f,
fe19,
fe04,
ffbb,
fe5c,
fe55,
ffec,
fea2,
fe84,
ff2d,
fea2,
0030,
fec7,
001a,
fff4,
0046,
0077,
00b4,
0123,
0060,
013d,
ffd1,
ffcd,
012e,
0141,
00a1,
ff79,
00b8,
00a1,
0066,
0068,
0058,
009d,
0053,
005c,
ff18,
ff54,
01fe,
0077,
01b0,
010d,
01ba,
ffdb,
00c8,
00bd,
0032,
00ba,
0055,
0181,
011c,
ffb2,
ff8b,
0145,
0143,
0065,
00d3,
0065,
00f7,
ff13,
ffd6,
ffa2,
fe5c,
ffff,
fe62,
fe1d,
ff25,
ff2e,
ffe7,
ff68,
feec,
ff14,
ff35,
0014,
ff48,
ffe3,
0018,
ff63,
00a5,
ffc1,
ff4b,
00ab,
0083,
0125,
008a,
013b,
007a,
009c,
0008,
0149,
0062,
0041,
010f,
009d,
ff7b,
ffb8,
002e,
0015,
004e,
0045,
fffb,
006c,
015c,
0102,
00d3,
003f,
0146,
00e2,
00fd,
005b,
0119,
fff9,
016f,
003f,
0106,
fff4,
ffdb,
00e8,
0061,
0093,
004d,
ffd7,
0022,
ff78,
ff67,
ff25,
fff7,
ff37,
fecd,
000c,
ff64,
fe6d,
003c,
fff3,
0047,
fee2,
fee5,
feda,
001d,
ffea,
00bf,
0016,
00a2,
0138,
0040,
00bb,
0176,
00d1,
011f,
00f0,
014b,
004f,
017b,
0018,
01a9,
0113,
0096,
0057,
ff7c,
00a3,
ff64,
0034,
ffa8,
00de,
00d0,
0139,
0007,
0165,
00f5,
0035,
0104,
00cb,
00a0,
fffa,
00f2,
ffbf,
0003,
011c,
00fb,
011f,
0007,
00ce,
0157,
01d3,
016c,
00da,
0021,
00dc,
009c,
00f0,
ffd7,
ffeb,
004d,
fea7,
feb7,
ff03,
0048,
ffda,
ffd3,
ffc8,
0052,
00ec,
ff7a,
ff82,
009e,
0106,
0054,
003f,
ffe7,
00da,
00e2,
0011,
01f7,
010e,
018a,
0224,
0233,
00dc,
0026,
004d,
ffb6,
ffc3,
00fc,
ff78,
00da,
00e3,
007a,
ffff,
007d,
ff83,
0022,
00d7,
00f8,
017f,
ffce,
ffed,
0122,
0146,
ffc9,
012f,
0105,
01a5,
ffe2,
ff85,
00e8,
003d,
00dc,
003c,
01e6,
01c7,
00f3,
00f3,
00d2,
0018,
0045,
ff29,
ff4f,
fed0,
fefe,
ff2e,
ff04,
00dd,
ff16,
0089,
ffe7,
004c,
006f,
0128,
00b5,
00d1,
0189,
0168,
0018,
0026,
00f2,
014b,
01d3,
0186,
01a5,
022c,
01ea,
009c,
0075,
001b,
0013,
0124,
0117,
ff99,
0095,
ff26,
0057,
fff2,
ffa2,
00e8,
0083,
00e3,
002c,
0040,
0148,
0121,
0140,
01ad,
011e,
00db,
ffb0,
00de,
012f,
00d9,
0088,
0024,
0186,
00ca,
0082,
00ac,
019e,
0097,
0027,
ffec,
ffa6,
0095,
ff43,
00cb,
0082,
00b4,
fff6,
ffdb,
00ea,
ffe0,
ffe6,
00a2,
0148,
ffe4,
ffff,
00db,
0078,
00fa,
0207,
01fd,
00ce,
01f8,
00c9,
021a,
0134,
00ca,
004b,
0073,
0200,
00a8,
ffdf,
ffe6,
00cb,
000e,
0036,
0001,
fef4,
ffd6,
004b,
00a8,
00b5,
00d7,
ff67,
ffed,
0046,
0015,
013c,
003b,
010e,
013b,
0063,
00e9,
0040,
ffd7,
0140,
0012,
006b,
01e7,
007f,
00ac,
00f3,
01d5,
0198,
004a,
ffea,
ff8d,
009e,
00f9,
ff87,
0081,
001f,
008f,
012d,
00dc,
009b,
ffa1,
00ed,
0126,
0097,
01da,
00e8,
009f,
007a,
0167,
00dc,
0050,
01d0,
01f6,
0163,
020b,
018f,
007e,
0080,
00a6,
ffe9,
00ff,
ffc3,
009f,
0072,
ff04,
febf,
005b,
ffb6,
0046,
ffe0,
0014,
ff4a,
ffc7,
ff69,
013e,
ffb0,
ffa2,
0092,
008b,
0039,
0136,
0152,
011a,
0104,
00ac,
0038,
0178,
01d7,
0235,
0170,
0051,
00b5,
01f3,
00c3,
ffbd,
0005,
ffb7,
0122,
00cc,
0028,
006a,
0050,
0189,
0125,
017e,
00d9,
ffe5,
00da,
0051,
0170,
0196,
008b,
012b,
0230,
01e9,
022c,
0053,
01cd,
00c6,
017a,
0109,
012d,
ffdc,
017f,
ffe8,
00ab,
00d8,
febc,
ff5d,
fef3,
0057,
00cd,
ff3a,
fff3,
00d1,
0043,
ffe5,
ff52,
0044,
001d,
ffcc,
ffea,
00af,
00f5,
010c,
00ce,
ffb5,
0049,
013a,
0091,
019b,
01d6,
0183,
009d,
0240,
01a1,
00b8,
00d9,
0026,
ffea,
011e,
0065,
016c,
00bd,
fff0,
00f6,
0198,
002f,
00f7,
01a6,
0088,
00e3,
006f,
011e,
007f,
004a,
0050,
013e,
003e,
0078,
01ca,
0074,
014b,
0086,
01ca,
ffd7,
0034,
00a3,
0089,
005b,
ff61,
ff44,
ff80,
fecd,
ffe3,
ff93,
ffc5,
fff3,
00f1,
ffd3,
fff1,
ff02,
ffe7,
0088,
ffdf,
00c6,
011e,
00e1,
ffe9,
00d1,
ffd5,
00fa,
00ab,
0195,
00ec,
0127,
011e,
0155,
013b,
01bc,
017c,
007e,
00fa,
000a,
01a4,
017b,
004e,
01cc,
00be,
0120,
0106,
01c5,
00b6,
0075,
010d,
00e1,
0078,
0021,
010b,
014b,
01c1,
0163,
01fb,
004b,
0123,
0054,
0140,
0165,
fff6,
0055,
00d0,
ffe7,
ffcc,
00b3,
fe92,
002a,
fe45,
feb2,
ffa8,
ffe5,
ff1c,
0017,
ff2a,
ffc0,
ffc3,
ff92,
004f,
ffdb,
001c,
0117,
0040,
fff9,
ff0a,
0027,
ff7c,
003b,
0107,
011f,
0032,
0043,
01d8,
0188,
0067,
0115,
00c5,
005a,
0043,
019b,
0157,
008c,
0185,
0141,
00b9,
005e,
01b4,
01ae,
ffec,
017c,
005b,
0031,
00a8,
00b7,
008c,
010e,
0025,
0186,
00e7,
00d5,
fff4,
00da,
0168,
0144,
0184,
011d,
ffca,
ff25,
ff12,
001f,
fe7d,
ff23,
ff5f,
ff24,
001e,
005c,
ffa7,
ff38,
ff83,
ffae,
003d,
ffdf,
ff78,
ffe0,
0072,
ff8d,
feea,
fff8,
ffbb,
ffe4,
ff2f,
0101,
008b,
0149,
0150,
0140,
0171,
0212,
00dc,
013e,
00ce,
004d,
01b7,
007a,
008d,
01a1,
0114,
016b,
0202,
0013,
01a2,
01d7,
011d,
0098,
00ac,
00df,
01ea,
0077,
015b,
0062,
01bd,
00d1,
018d,
01a7,
011c,
0190,
00b4,
ffe3,
ffc1,
ff83,
ffb0,
ffba,
0016,
feaf,
ff3c,
ffcf,
ff96,
ff14,
ff83,
ff0e,
006b,
005c,
00c1,
fff7,
0013,
ffed,
ff39,
000b,
feb9,
ff96,
ffbb,
001e,
ff70,
0035,
00c5,
0108,
016e,
fff5,
0120,
00f4,
ffff,
0099,
00a9,
001e,
01c1,
00e4,
00ec,
00b9,
00bd,
0196,
01a9,
007a,
01f1,
019c,
0105,
00d8,
018f,
00cd,
0037,
01bb,
0148,
00fc,
ffe7,
013f,
018d,
0062,
0188,
0098,
fff5,
0191,
0138,
0032,
ff42,
fedb,
00a2,
ffe7,
0015,
fed6,
fe4e,
fe3c,
ff94,
fe06,
ff6c,
fece,
fef7,
00e9,
feed,
ffe1,
fece,
fe73,
fe1d,
ff65,
ff9d,
fed9,
0078,
0042,
fffa,
fedd,
ff14,
00c7,
00bd,
015c,
01bc,
00cf,
00f0,
00d6,
00f5,
0127,
0177,
009a,
01e9,
0177,
018f,
01e8,
01e3,
00e6,
00c5,
015e,
0033,
0113,
01f1,
0115,
0149,
00f0,
00c6,
0072,
014c,
0062,
000e,
0185,
016d,
00f6,
00c5,
0081,
003f,
011a,
fffd,
0000,
fece,
ff92,
ff29,
fe1d,
fedf,
fef6,
ff4d,
fdcd,
fe32,
fe8a,
ff08,
000b,
ff27,
feca,
ff29,
ff47,
fe4a,
ffbb,
0012,
ffcd,
fe94,
ffe8,
ffb6,
ffa9,
005a,
0073,
0083,
0131,
0119,
ffc0,
00e8,
00f4,
00c3,
ffd2,
fffb,
0065,
0041,
00f8,
003c,
00a9,
001e,
00b2,
0167,
0185,
0067,
0121,
00a8,
0167,
01a9,
010e,
00db,
ff96,
0041,
0172,
fffb,
009f,
ffef,
013e,
00c1,
ffab,
00a6,
ff44,
0083,
ffcd,
fee4,
fe59,
fddc,
fe00,
fe79,
ff3c,
fd98,
fe19,
fe21,
fe85,
ffc4,
ff2b,
ff5a,
0032,
fecd,
ff28,
fe5b,
ff94,
fe3d,
ff21,
fef9,
000c,
ffe8,
ff55,
fecb,
ffde,
00ba,
00a2,
0073,
00a9,
016b,
0102,
00ac,
ffd9,
0134,
0150,
ffb9,
00d1,
013b,
00bd,
01dd,
0096,
00d6,
0115,
01a2,
0137,
014c,
00b6,
000b,
000f,
0038,
00f5,
015f,
0012,
ffc8,
008f,
0134,
010b,
0094,
00e3,
009f,
0004,
fe55,
ff50,
fe6d,
fe23,
ff6a,
fe38,
fe5a,
feba,
fdfa,
fe3b,
000d,
ffe7,
febd,
0093,
fef4,
fea5,
ff4f,
fe41,
fec8,
fed5,
ff2f,
ff25,
ffe4,
fefb,
ff12,
fee0,
ffa6,
ff06,
ff7f,
ffa3,
008c,
014a,
0096,
004e,
0095,
006c,
ffe5,
00fd,
007e,
0032,
0066,
00c6,
0155,
0131,
0003,
00b1,
0117,
008b,
001a,
01a6,
00d5,
0112,
008a,
ff5f,
fff3,
00eb,
008f,
0062,
ff7f,
012b,
00ae,
ff25,
ff5c,
fff1,
fe2e,
fdfe,
fdfe,
fdda,
fec4,
fd8e,
fe44,
fd46,
fd8a,
fe17,
ff02,
fea1,
febd,
0103,
ffa7,
fee3,
fe90,
fe58,
fe7a,
ff0f,
ff3a,
fe25,
fef1,
ff89,
ff9c,
fe86,
ffdd,
0074,
ff44,
0014,
0000,
ff51,
0137,
0122,
00cc,
ffc9,
00aa,
005a,
fff1,
0028,
ffa0,
00de,
0012,
fffc,
00fd,
00a4,
0017,
ffd5,
0129,
0166,
ffcb,
00a1,
0069,
0071,
0109,
00a2,
ff8f,
008b,
006e,
0088,
ff9b,
007e,
fed3,
fe5c,
fecb,
febb,
ff43,
fdd1,
fee5,
fe19,
fe13,
fd3b,
fdbb,
febd,
ff9d,
fff7,
ff33,
0125,
ffeb,
00c4,
ff0f,
ff94,
feba,
fe2f,
ffba,
ff15,
feb3,
ff43,
ffe7,
ffb8,
fed1,
ff3c,
0030,
0071,
ff3c,
ff5a,
0048,
0137,
0132,
ff96,
000d,
0034,
00f4,
ff7c,
ff7d,
0125,
014d,
0091,
014c,
008a,
00ed,
00d2,
ff9d,
0018,
013b,
00e3,
0023,
0106,
008b,
ff69,
00ec,
ffc9,
ff5d,
ff31,
ff84,
fedb,
ff1a,
fff6,
fde8,
fead,
feee,
fdea,
fdd1,
fe66,
fee5,
fe3c,
fdbf,
feaa,
fee7,
fec8,
ff15,
0150,
012b,
ff6a,
001d,
000b,
ffaf,
fea1,
001a,
ff6a,
ff43,
0018,
0051,
fe8f,
feb2,
ff4b,
ffac,
fefe,
ff7b,
00b9,
006d,
002c,
ff92,
fff3,
0033,
00a7,
00b2,
002c,
ffc8,
001b,
006d,
003d,
ffff,
00e2,
ffa6,
0037,
0149,
0134,
ff6c,
ff7c,
ff1e,
ff65,
00ae,
00c3,
ffa2,
0009,
0004,
003f,
005c,
fedc,
ff80,
fe3e,
fedc,
fdfe,
ff09,
ff8e,
fd85,
fddf,
fd98,
fe1c,
fffd,
fe8a,
ff35,
00aa,
ff40,
0122,
0168,
ffca,
ffc0,
ff55,
ffc6,
fecc,
ff2e,
ff9f,
fee5,
0051,
ff0e,
004b,
fed1,
fffd,
fffe,
005b,
00b0,
0077,
00aa,
0142,
0055,
ffdb,
0047,
000d,
0011,
ffe4,
00c0,
0050,
00e4,
00ba,
ff5d,
ff86,
ffa7,
007b,
ffaf,
ff30,
ffc8,
00eb,
ff6e,
ffdf,
fff7,
0059,
fefb,
ff88,
ff79,
ff5f,
00ce,
ffc6,
ff88,
0043,
ff3c,
fec2,
fe66,
ff5a,
fdd9,
ff1a,
ffc8,
fec5,
ff95,
ff27,
ff18,
ff6d,
fff5,
0090,
00e0,
0031,
00d3,
ff99,
0008,
0079,
fff7,
ff0d,
0091,
0053,
ffd4,
ff75,
0069,
ffcf,
0062,
0057,
ff3d,
ff15,
001a,
ff9d,
0040,
00e5,
0128,
00cf,
ffca,
ffc1,
ffcc,
0093,
ffe2,
ffe7,
00be,
ff92,
0032,
0004,
00f4,
ff99,
0004,
ff38,
ff1c,
fffb,
ff38,
ff4c,
ff52,
ff51,
ffe9,
ffc9,
ffbf,
ffbf,
001f,
ffd5,
fecd,
ffc8,
fe77,
fe86,
fe8a,
fe52,
fe6c,
0087,
ff77,
ffb5,
00ab,
ff44,
008d,
ffe1,
015c,
ff41,
0014,
00a6,
ffcd,
feae,
ff45,
0074,
005a,
004a,
fefe,
ffda,
ff9b,
0092,
0047,
ff81,
ffa2,
0066,
fffb,
00f2,
ff90,
001e,
0071,
ff4d,
ff83,
ff7c,
0002,
00ef,
ffb5,
ffb5,
0049,
006a,
000c,
007a,
0039,
ff78,
0095,
ff55,
ffd3,
002f,
0053,
0007,
011e,
ffff,
ffe8,
ff84,
ffad,
ffa4,
0021,
ff4c,
ff2e,
006a,
fffc,
ff3f,
fe9a,
0012,
ff4c,
0025,
0073,
fffe,
ffba,
0107,
0120,
01a2,
0084,
00cd,
015f,
0045,
ffc8,
002f,
017f,
ffea,
0018,
ffa2,
0114,
014f,
ff6d,
009f,
0033,
ff55,
00f6,
ffbf,
ff9b,
ff99,
ff9d,
002f,
fe77,
fe28,
fe8e,
fec7,
ff08,
fe24,
fdbd,
fe54,
fe42,
ff1c,
fed3,
feda,
fede,
feef,
ff19,
ff5d,
ff85,
ff6f,
fffb,
ff3c,
00e3,
ffe1,
0031,
ff93,
0063,
ff5a,
00da,
ff8b,
ff76,
00f9,
0167,
0032,
ff7a,
ffd8,
00d3,
0135,
fffa,
00bb,
001e,
0155,
01b4,
ffe4,
015c,
0040,
009b,
00b1,
011a,
0033,
0084,
0131,
ff53,
ffdd,
00c9,
ffe2,
00e3,
0031,
ff5b,
ff57,
0037,
ff69,
0026,
0028,
ffa0,
ff90,
ffbb,
fedc,
ff63,
fd6c,
ff05,
feef,
fe18,
fefb,
fe54,
fda7,
ff4f,
fdb2,
fe2d,
fea2,
feb1,
ffa0,
ff1a,
ffb7,
ffff,
0091,
004f,
ff7d,
005a,
002a,
ffae,
fff8,
0047,
00c1,
00af,
0156,
00fe,
00f0,
009c,
ff71,
ff79,
fff5,
0019,
014f,
0130,
00ec,
ffd6,
000b,
011f,
00a8,
00ea,
0090,
ff75,
ff47,
fff9,
00e8,
ffcd,
ffe6,
0015,
0048,
ff9e,
fed5,
ff42,
ffe4,
fe69,
ff79,
ff71,
ffd4,
febf,
fe73,
feb7,
fdc3,
fe3b,
fe0b,
fed4,
fee4,
fe79,
fd41,
fdb6,
fd6d,
ff20,
ff45,
fe7d,
fe44,
ffbe,
ff65,
fe34,
fe2a,
fff2,
0038,
ff53,
ff12,
ff38,
00b2,
0046,
00f7,
00fe,
0050,
ff8c,
0143,
00f7,
0151,
00a2,
00cf,
0126,
ffc0,
0143,
002f,
013d,
0166,
01a8,
00a1,
0019,
ffa5,
0079,
001e,
0089,
fee4,
001b,
feda,
ff7f,
feb9,
ff9f,
fed9,
fea2,
fe8a,
feeb,
ffae,
fe1d,
ffae,
fe20,
ff51,
ff89,
fe7d,
fe0a,
fef5,
feeb,
fead,
ff15,
fd9f,
fda3,
fee8,
fe96,
fe03,
ff9b,
ff80,
fe43,
ff35,
fefc,
ff3b,
ff53,
ff6c,
ff35,
003d,
ff0c,
ff88,
007b,
002d,
ffd2,
ff72,
005c,
feef,
00a6,
ffc0,
004e,
ff51,
ffb4,
003b,
ffc7,
ffc2,
fff0,
ffd8,
00ba,
003f,
00aa,
003b,
ff86,
0032,
0000,
fecd,
ff48,
fefb,
fe41,
ffe9,
ff02,
fefa,
fe00,
ff69,
fdf0,
fe70,
fec4,
fecf,
fe0a,
fe73,
ff7e,
ff3f,
fe77,
ffb9,
fe9e,
fe36,
ff54,
ff4a,
ff84,
ff72,
ff11,
ff41,
fee2,
ffd2,
ffba,
ffca,
ff67,
ff4c,
ff6b,
feaf,
0025,
ffbe,
fe95,
fef9,
fea9,
002d,
ff8a,
0097,
ffad,
ff58,
ff4f,
ffea,
ff8d,
0079,
00fd,
ff62,
0079,
ff7f,
00d6,
00b8,
ffc0,
ffee,
0189,
0109,
0070,
ffcb,
ff7c,
ffd6,
002d,
0012,
ffa5,
ff85,
ff88,
ff6c,
ff1d,
fe19,
fee3,
ff2d,
fefe,
fe3b,
ff29,
ff26,
fe86,
ff60,
fe2c,
fe38,
fe27,
ff12,
001d,
ff48,
febd,
ffae,
000b,
0000,
febb,
ff09,
ff88,
fe7a,
ff51,
ff3f,
feed,
ff09,
ff4c,
fef9,
ff4a,
feb5,
ffb0,
fee4,
feb8,
ffb8,
ff86,
00a6,
0043,
00b4,
0054,
ff50,
ffe3,
ff8d,
ffa5,
ffc4,
0052,
ff0c,
ff27,
ff18,
ff8b,
0042,
0009,
0056,
004a,
fff6,
0078,
ffa6,
ff52,
ffad,
ffdf,
fe8a,
fe95,
ff3a,
ffd4,
ff5a,
ff78,
fe94,
fe40,
fe08,
fe9a,
fe91,
ff05,
fe48,
fe93,
ff82,
fe77,
ff2e,
ff31,
ff7c,
000a,
0050,
fee2,
ffd1,
feec,
feff,
ffa3,
fedf,
000b,
ffd6,
fe9f,
fe6d,
fedb,
ff40,
0024,
ff5e,
0035,
ff6f,
006e,
ff83,
ff65,
007f,
ff9b,
0025,
fee3,
0064,
0031,
ff4e,
ff4b,
ff51,
fff4,
00af,
ff1c,
fef1,
003f,
00e4,
ff99,
0015,
0007,
ffe0,
ffdc,
ff2f,
0062,
fe97,
feff,
ff52,
fe7f,
ff32,
ff46,
fee5,
ff3f,
ff42,
ff7a,
fe02,
fe5b,
fe0e,
fed7,
fee3,
ff7b,
ff2d,
ffd3,
ff98,
ff04,
0012,
ff7e,
feba,
fe7b,
001e,
ffa6,
fe6e,
fefe,
ffdd,
fecf,
ff68,
004e,
fe72,
ffb1,
ffb2,
ff03,
ffc3,
0055,
ffc1,
ffa5,
ffa3,
00b7,
fed3,
00a4,
ffdd,
0013,
ffe4,
ff82,
ff21,
ff02,
ffd9,
ff83,
fec1,
ff54,
ff42,
ffae,
ff3f,
ffd2,
0087,
0085,
0084,
ffcc,
000e,
0034,
0036,
001d,
ff99,
ffe5,
fedc,
ff05,
fe67,
fe32,
ffb2,
ff84,
fecd,
fe73,
fdcf,
ff58,
fe21,
fe23,
fe61,
fe61,
ff91,
fe41,
ffdb,
fe58,
ff44,
ffe7,
001c,
ff71,
fea3,
feb3,
fff2,
fe9d,
fea8,
fe7f,
fea4,
ff37,
002e,
ffe7,
fea0,
001c,
0018,
0069,
ffe8,
0061,
007a,
008f,
ff9a,
ff85,
fe9b,
ff9f,
fecf,
ff33,
ff91,
ff61,
ff30,
ffc8,
ff57,
0067,
0023,
fff0,
000a,
00d0,
ff02,
00b9,
feb3,
0054,
fee4,
0020,
ff52,
fe31,
ff3f,
fe4b,
ff94,
ff3e,
ff30,
fdf1,
ff91,
fed5,
ffad,
fed2,
fe58,
ff51,
ff75,
fe2e,
ff9e,
ff06,
ffa4,
ffc5,
fee9,
fed4,
ff59,
fe34,
fed2,
ff67,
ff1c,
0016,
fe51,
fe1e,
ff70,
fff0,
ff52,
fea0,
ff0f,
ff23,
ff26,
ff4a,
ffff,
ff33,
fe94,
ff42,
feac,
ff81,
0027,
ff6c,
ff67,
001d,
ff22,
ffa0,
ff4a,
001c,
ffc3,
fe7f,
0036,
005f,
0108,
ffcb,
ff9b,
0031,
0017,
0037,
ff96,
ffc6,
ff3e,
ff0c,
fdf7,
fe8e,
ff2f,
fe25,
fe45,
ff8f,
fe49,
ff9c,
fe77,
fe1e,
fec7,
fe6c,
fe47,
fe60,
ffbb,
ff54,
fef1,
ffe9,
fea2,
fe32,
ff4d,
feb2,
febd,
ff37,
fe4d,
ff4e,
ff8b,
fe4c,
ff27,
ff6f,
fee0,
fec9,
fff4,
feb0,
ff48,
ff98,
003a,
ffc9,
ff4a,
fef8,
ffa3,
fe63,
fec4,
fe86,
fee3,
fea2,
ff2c,
ff4d,
ffe9,
ffd9,
fe1a,
ff1b,
fe4e,
ff5c,
ffa7,
ff99,
ff55,
feac,
004e,
0024,
ff08,
ff30,
fff2,
ff92,
ff85,
fdc9,
ff93,
fe47,
feb5,
ff2e,
ff55,
ff2c,
ff5c,
ffa5,
feb4,
fee2,
fe27,
ffb9,
fe87,
ff2c,
ffda,
feae,
fec8,
fe90,
ffda,
ff16,
fdd3,
fe74,
feff,
ff01,
ffb0,
fe02,
fddc,
ff2b,
fe00,
ffed,
feb7,
feb1,
ff2e,
ffe0,
ff6f,
fe44,
ff10,
fe8c,
fe4c,
fee7,
fe9d,
ff6b,
ff4b,
ffc0,
fe39,
ff98,
ff5c,
fdfe,
ff9e,
fe41,
fe34,
fed1,
fee6,
000d,
ff53,
0024,
ff65,
ff49,
fe3f,
fe80,
fe4d,
fdfe,
fdde,
fdef,
ff25,
fe91,
ff9f,
ff5f,
fe93,
ff7f,
fe00,
fe0c,
fea8,
fe59,
ff84,
fdfd,
ff9a,
ff3d,
ff26,
feac,
fe43,
ff1d,
ff65,
fdd8,
ff38,
fe44,
fdce,
fec8,
fee5,
ff04,
ff1c,
fe2e,
fe83,
ffce,
ffcc,
ffde,
ffce,
ff17,
fe4e,
ffd5,
fe18,
ffea,
ffa1,
ff69,
fe07,
fe05,
fe17,
fdb1,
fead,
ff8c,
fee7,
fdca,
febd,
ff22,
fe76,
ff4c,
ff9d,
ffa4,
ff3e,
fe9b,
ff3a,
ff39,
ff70,
ffce,
fde6,
ff7f,
fe50,
fe6a,
fe0e,
feff,
fe77,
fe79,
ff96,
fe9c,
fefd,
ff11,
fdd1,
ff9b,
fef0,
ff76,
fee8,
ff5a,
ff36,
ff24,
fe60,
ff83,
ff95,
ff11,
ff06,
fdff,
fdbd,
ff50,
ff8b,
fdc9,
fe3a,
ff13,
ff4a,
feba,
fe3d,
ffa9,
ffc7,
fe31,
ffcc,
fe11,
fe43,
ff57,
feb4,
fdf4,
ff8b,
ff0d,
fdfa,
fe7a,
fe30,
ff77,
fee8,
fea3,
fe87,
fdd5,
ff71,
fe5c,
fef0,
ff3e,
0017,
fed6,
ff5e,
ffd4,
ffd8,
fe65,
fe44,
fdb5,
ff84,
fdcf,
feb5,
fea7,
fdac,
feae,
fe79,
fdc7,
fee9,
fdc2,
fe1f,
ff1f,
fdf7,
ff43,
ff69,
ff16,
ff90,
ff63,
ff61,
fe67,
ff37,
fe32,
ff12,
fdea,
ff60,
fe85,
fdef,
fda8,
ff62,
feb5,
ffdb,
fdfb,
ff40,
fe24,
feb2,
fea2,
fee2,
fdf4,
feca,
ff59,
fe97,
fdc4,
fecf,
fecb,
fdf0,
febc,
fe96,
fe71,
fe15,
ff34,
fdb3,
ff72,
fe78,
fde1,
ff46,
001d,
ffea,
fff2,
ff6e,
ff76,
fe1e,
fe5b,
ff9e,
fe9a,
fe6c,
fe3e,
febf,
fe80,
ff11,
ff7d,
ff96,
fe2d,
fe97,
fe28,
fe67,
fe82,
fe47,
feb5,
feae,
feea,
ff32,
fea1,
fe91,
feed,
fe0d,
fe53,
fdbc,
fe7d,
fdb1,
fed0,
fde8,
ff85,
ff76,
fe15,
fea1,
ff0d,
ffac,
ff4e,
ff5b,
ff5d,
fe04,
fe0f,
fe17,
fdea,
ff9a,
fdce,
fe52,
fe34,
fe69,
feac,
fec7,
fe97,
fdef,
fdb9,
fe04,
fe51,
ff1c,
feff,
ff02,
fff2,
feb2,
000f,
fe63,
ffda,
ff4c,
ff10,
fee0,
ff28,
fe1c,
fe6d,
fea3,
ff6a,
fddf,
fd8e,
fea8,
fdde,
fe7a,
fe01,
fe9b,
fe6a,
fefb,
ff02,
ff0f,
fe8d,
ffb0,
fdf5,
fe40,
fdcc,
fe28,
ff4e,
ff5d,
ff2a,
fe58,
fe84,
fea0,
ff01,
fe88,
fdce,
fdf9,
fe7d,
fe8c,
ff94,
fe61,
fe03,
ff3f,
ff32,
fdd9,
fe63,
fefe,
fec2,
ff89,
fddc,
ffa8,
ff38,
ff1a,
fe4d,
fd9d,
ff48,
fe28,
fe30,
ff23,
ff69,
ff9e,
fe99,
ffbc,
feb0,
ff63,
ffba,
ff3e,
fecb,
fddc,
fe32,
fdf3,
ff33,
feb9,
fe23,
fe53,
fdb5,
ff5f,
fee6,
ff65,
fe5a,
fe72,
fe47,
fedc,
ff31,
fe89,
fe9b,
fe45,
ff30,
fddc,
fe21,
fe61,
feaa,
fe02,
fefd,
fea8,
feee,
fe65,
fe79,
ff56,
fea9,
feac,
fe0f,
ff5c,
ff00,
ffe4,
fdfe,
fe8d,
fe96,
fdfe,
fe10,
fe2f,
ff18,
fe19,
fe2a,
fe0f,
fdef,
ff0e,
ff8b,
fefc,
fe14,
ff10,
fe96,
fdb0,
ff58,
ffa5,
ff9e,
fe9a,
ff25,
fed7,
ff03,
fe0f,
feec,
ff12,
fec7,
ff63,
fd9e,
ff55,
ff43,
fe21,
fed6,
fea8,
fdb8,
fe07,
fe70,
ff63,
fe73,
fe7f,
fe60,
ff03,
ff54,
fee6,
ffb1,
fe43,
fe53,
ff5e,
feae,
fe7e,
ff27,
ff82,
ffb7,
fe01,
fe86,
fef4,
fe01,
feb7,
fdfd,
ff89,
fec5,
fe04,
fe07,
ffae,
ff42,
ff13,
ffac,
fed8,
ff21,
ff56,
fe53,
fe2b,
feab,
fe8d,
fda9,
fed4,
fdd5,
fe7d,
ff36,
ff6a,
fdfb,
feac,
ff4b,
ff57,
ff2e,
fe98,
ff52,
fe63,
fe7b,
feeb,
fe90,
fee3,
fd7e,
ff61,
fdd0,
fea3,
ff79,
fe1d,
fe97,
ff41,
ff47,
fe2f,
fe08,
fe9c,
fdfe,
fe9d,
ff41,
fe21,
fe77,
ff3a,
fff6,
fecc,
fe3a,
ffbb,
ff78,
fe84,
fedc,
fe97,
fe1d,
fe7d,
fff2,
fe86,
ff3f,
ff2a,
ff46,
ff9f,
ff06,
fff8,
ff1f,
ff9f,
feac,
fe06,
fe89,
fe9e,
ff29,
ff0d,
fe6b,
ffa1,
fe82,
fdb1,
fe5f,
fdb9,
fdb6,
ff3d,
ffa2,
ffc4,
fe7a,
ffe7,
fedf,
ffb0,
fe8e,
ffad,
fec8,
ff40,
fe16,
ff80,
fe20,
fda2,
fd9c,
ff58,
fdc0,
fdb1,
fe4f,
fe58,
fe3b,
fe91,
fef1,
fe9c,
ff4f,
fe84,
fe68,
fe9d,
ff30,
fe9e,
fe69,
fe6a,
fe91,
fe63,
ff7c,
fed0,
fe98,
ff4a,
fe57,
ffce,
fe6c,
fe3c,
001f,
fe3b,
fffc,
ff37,
fef4,
ffcc,
fe1e,
ff08,
ff3c,
ff08,
fec3,
fe6a,
fe2e,
ff42,
ff3d,
fe7d,
fed3,
ff71,
fe49,
fe16,
ff02,
ffa7,
ff36,
fea6,
febd,
0017,
fe4f,
fff1,
fee4,
fe23,
fff1,
fe27,
fe86,
ff91,
ff2b,
fdd4,
ff93,
feb8,
ff24,
feea,
fde0,
ff4b,
fe88,
ff14,
fe9f,
fe10,
fe73,
ff8e,
fe35,
fe04,
fed7,
ff68,
fffd,
fe9f,
fef1,
fee3,
ff66,
fffc,
ffba,
003a,
ff58,
001b,
fe53,
0018,
ff95,
ff52,
0004,
ffc2,
ff9a,
fffa,
ffd4,
ffe6,
0016,
feae,
0020,
fe71,
fe27,
ff3a,
fdd1,
fe27,
fea4,
ffa3,
fdf0,
fdc9,
fe1b,
ff74,
fef7,
feac,
fe37,
0002,
fefd,
fe60,
fe1b,
ff07,
ff5e,
ff1c,
ff41,
ff29,
ff0a,
ff4d,
ff85,
fed0,
fe08,
ff96,
ff29,
fe36,
fe8a,
ff69,
fe43,
ff1f,
fee1,
fde6,
ff41,
fee0,
fefb,
fecc,
fe49,
fee6,
fed5,
ff02,
0085,
ffc4,
ff2c,
0091,
004e,
0030,
ffc2,
fe69,
fed2,
ff2e,
ffaf,
feaa,
fe6e,
fe55,
fe37,
ff5b,
fef6,
fe75,
0022,
ff4a,
ff6f,
ff88,
ff48,
ff24,
ff1e,
fed8,
feba,
fe42,
fe65,
fe38,
fe42,
fe25,
ff7b,
fe73,
ff1b,
ffd5,
ffd4,
fe40,
fe22,
fefa,
fe50,
ff40,
fdeb,
fdf1,
ff09,
febb,
fe05,
fe39,
fe88,
fe20,
ff68,
fe9a,
ff7b,
ff01,
fe3f,
ffcf,
fed6,
fef8,
ff62,
ff56,
002d,
ff55,
ff2b,
ffec,
ff5b,
009d,
007a,
004b,
ffa7,
ffb0,
ff97,
ffee,
ffce,
fe74,
ff4d,
0034,
ff96,
fefe,
003a,
fee1,
ff57,
fe9e,
fe31,
ff55,
feb9,
fe92,
ff3d,
feff,
ffb3,
ff26,
fe34,
fe32,
fde1,
fe79,
ffa6,
fdc3,
ffa0,
fe8a,
ff82,
ffa2,
000e,
ff95,
fe1f,
ff94,
ffcc,
fe70,
fe0b,
ff7c,
fe75,
fe8d,
ff0b,
fe6f,
ffcc,
ff42,
ffc3,
fde6,
fe1a,
ff6d,
fe37,
ff17,
ffec,
ff99,
ff39,
ffdb,
0038,
fe7a,
ff23,
ff99,
ff3b,
ffe8,
00a1,
ff4b,
fedf,
0061,
fed0,
fef3,
fed5,
ffd6,
fec5,
fe43,
ff33,
ff7c,
ffa7,
ffac,
ff39,
fef5,
fee4,
ffe2,
ff21,
ff38,
ff92,
ff47,
fdf6,
fe85,
fed9,
ff1c,
ff10,
fdf8,
fe58,
fe5b,
ffc2,
0041,
ffb0,
ff69,
fe77,
feb8,
ff62,
fe63,
fe73,
ff0d,
fe46,
fe2f,
ff42,
ffc5,
fef0,
ff70,
fe36,
ff5c,
ff58,
ff04,
ffd3,
fed9,
feb7,
0003,
feb7,
fec6,
fe43,
fea5,
ffac,
ffdd,
ff3f,
0021,
ffa0,
ffdb,
00d9,
007d,
009e,
0050,
fef5,
ffbf,
ff26,
feb5,
ffda,
fe81,
fe76,
fefd,
fe4a,
ff14,
ffbe,
fe77,
ff22,
fe80,
ff0a,
ff36,
ff05,
fe8f,
ff92,
feaf,
fed7,
feb9,
ffa1,
fe93,
fefe,
fedf,
fef9,
0057,
fe9c,
ffb8,
ffa5,
fe75,
fe53,
ff7e,
fe6c,
ff99,
ffae,
fdfb,
ff5d,
fe63,
ff3e,
fe8c,
fe31,
ff84,
fefc,
ffac,
ffc3,
ff62,
ff90,
fe73,
ffb2,
ff3d,
feb0,
0014,
ffa6,
ff52,
fff4,
ff81,
ff18,
ff70,
00e4,
ff14,
ffdd,
ffad,
feea,
feaf,
fea9,
fef8,
ffbd,
002a,
fef5,
ff68,
fe75,
fe49,
ffca,
fed2,
0009,
ff86,
ff82,
fe3a,
fe04,
ff0d,
fef7,
fe32,
fdf1,
fed2,
ff78,
ff0a,
ffd2,
ffd4,
ffae,
fff3,
007b,
fea5,
ff71,
fe85,
fe90,
fe94,
fe51,
ff9b,
ff88,
fe46,
ffae,
ff8b,
fe2c,
fef3,
ffce,
fee9,
ffec,
fe45,
0020,
ffa4,
ffca,
ff38,
feb6,
001a,
ffd8,
fee8,
ff3e,
ff6f,
fff4,
ff3d,
0062,
008f,
ffbf,
00b0,
0073,
006e,
feb1,
ffd8,
ffc8,
fff1,
fea0,
ff6a,
ffe8,
000f,
ff49,
fe9b,
ff9d,
fe8c,
000f,
fe8e,
febf,
ff9f,
ff12,
fedf,
fef9,
ffd2,
ffc2,
ff72,
fefc,
ff18,
fe4f,
fee0,
fead,
ff87,
ffe8,
ff00,
fe99,
ff0a,
fe7c,
ff72,
ff4b,
fff2,
fe90,
ffd6,
fe2c,
ffc4,
fefc,
feb8,
feef,
fe4a,
0000,
ff0b,
ffaf,
ff8e,
ffa6,
fefc,
ff0f,
fe7a,
ff0a,
ffbd,
002d,
ff1d,
002c,
0073,
ffad,
ffca,
ff83,
ffa5,
008f,
ff60,
ff11,
ff02,
ff53,
fe35,
ffbc,
fefa,
feeb,
feca,
fe3b,
ffad,
ffac,
ff7d,
fede,
fe23,
fe43,
fe97,
ff27,
ff59,
fe35,
ffce,
fe8b,
fff4,
ff9c,
ff60,
ff5a,
ff93,
ffd0,
00ae,
ffca,
ff7d,
ff37,
ffa3,
fecf,
ff07,
fffa,
fff2,
ffc2,
fed6,
fe8a,
fe62,
ff48,
ff9a,
ffc4,
ffcc,
ff0b,
ffec,
ff5c,
0045,
ff72,
fff1,
fefd,
ffeb,
0032,
0095,
007b,
ff86,
ffbb,
ff32,
ff78,
fff8,
ffab,
00ca,
ff60,
feec,
ff1b,
fffc,
febc,
fe7d,
001f,
ff16,
feba,
fe80,
fe5c,
ffe8,
fef5,
ff4c,
ffbf,
fede,
0004,
fe40,
fee1,
fe1e,
fea4,
ff59,
ffb0,
ff0e,
ff99,
ff00,
fe4a,
ff30,
fe50,
ff66,
00dc,
008a,
ff4a,
ff0e,
0056,
ff48,
005f,
003f,
fe53,
0034,
ffb9,
0048,
fe90,
fee9,
ff88,
003b,
ff68,
fef4,
fec1,
ff44,
ff28,
ff16,
fed5,
fe9d,
ff5e,
ffef,
ffff,
010e,
ff35,
00e7,
00c1,
ffc7,
00e5,
009b,
ff3a,
00e7,
ffc3,
0067,
fee0,
ff28,
ffe0,
ff0e,
ff5c,
fef7,
fe84,
fed8,
fe88,
fe59,
0031,
ff2c,
0007,
ff64,
feb4,
0001,
0002,
002c,
fef4,
0027,
ff29,
feb4,
fef0,
ffbd,
feea,
00ac,
ff74,
0093,
ff44,
ff51,
ff1a,
ff82,
006c,
0033,
fef6,
fed4,
fee3,
ff39,
0029,
ff63,
0008,
fe5a,
fe7a,
fe5d,
ff9b,
004f,
fee1,
ff5f,
ffe9,
ffc1,
ff7d,
ff3a,
0049,
ff7c,
ffa7,
0054,
ffd8,
00d5,
ff7f,
003e,
000b,
0034,
fefc,
ffd8,
ff4a,
ff81,
0006,
001c,
fff2,
ff23,
0021,
fed2,
0037,
ff07,
0016,
ff90,
ff2c,
fef6,
ff10,
ff48,
ff83,
ff9b,
0066,
fe92,
000f,
004f,
ffae,
ff28,
ff52,
ff6b,
00a1,
ffea,
0052,
0088,
0042,
fee8,
ffa4,
ff37,
ff54,
ff4a,
ff37,
ffdb,
ff0d,
ff75,
001e,
ffb2,
fee8,
0033,
ff9e,
feaa,
ffe2,
007c,
00ae,
ff86,
ff89,
ff40,
ffe4,
00b0,
011c,
0134,
0062,
0011,
001b,
ff44,
ffb2,
0069,
ffcd,
ff4c,
ffc2,
ff42,
0004,
ff38,
fe72,
ffd5,
febc,
fe87,
0005,
ffd5,
fecc,
ffca,
ff51,
ff9c,
ff30,
ffe4,
ff04,
fedc,
fff1,
003e,
ff8c,
ff2c,
ff35,
0070,
ff06,
0055,
fffd,
0041,
fff6,
ff10,
ffea,
ff0e,
ffe6,
00ac,
ffb2,
002f,
0068,
ff63,
000a,
ff3d,
fec8,
000b,
0010,
003c,
fed7,
ffa4,
fefd,
0053,
001d,
002e,
ff2e,
0015,
00bf,
0131,
fff6,
0054,
ff9d,
00b0,
0086,
ff40,
ff43,
fffb,
ff50,
004d,
ff90,
fe77,
ff20,
0044,
feb0,
0002,
ff03,
ff51,
0016,
fea8,
ff29,
ff61,
feef,
ff20,
ffe3,
fec5,
fee3,
ffac,
ffb8,
ff13,
009b,
fed1,
ffe9,
ff3a,
006b,
00b7,
0029,
ff45,
001d,
004e,
ff4b,
006b,
ff99,
0001,
ff25,
00cd,
0097,
003e,
ff45,
00a7,
ff6b,
ffa4,
ff0e,
ff58,
fec3,
ff24,
0096,
ff4f,
ffed,
00b7,
ff7b,
ff6c,
0081,
00b6,
0070,
0133,
ff94,
00e2,
00d7,
0041,
ff62,
ff7e,
00e3,
006e,
ff97,
ff07,
ff23,
ff75,
000e,
ffdb,
ff60,
ff23,
fe92,
fedf,
ffa0,
ffd3,
000f,
fefc,
ff56,
ff4f,
ff9f,
fee5,
003a,
fff6,
0032,
ff59,
ff32,
005a,
0076,
0105,
00c6,
ff9e,
ff11,
ffc3,
ff93,
000d,
ff52,
ff8a,
005b,
00b6,
ffb0,
ffa0,
ffba,
ffd5,
00d5,
ffb7,
ffa3,
00c4,
0004,
0050,
ff29,
ff6d,
0024,
00a5,
005e,
007a,
ff91,
009e,
00cc,
0057,
00c9,
0102,
0027,
00e1,
ff71,
00e2,
ff53,
0020,
00a4,
ff98,
0030,
0062,
ff08,
001b,
ff96,
ffc8,
ff90,
ff91,
ffd4,
ff5f,
feaa,
fff0,
0086,
fff0,
ff38,
ff27,
ffb6,
ff9a,
ffcd,
0002,
0025,
00af,
ffc2,
0085,
0016,
0062,
0086,
fef5,
00d4,
ffaa,
001d,
ff65,
ffa7,
fffa,
ffa5,
0125,
ff79,
ffad,
006b,
0037,
ff49,
ff2c,
ff46,
ff5c,
006c,
0096,
ff5f,
ff6c,
00cc,
ffcd,
0016,
0086,
ffe9,
ffee,
0034,
007a,
ff98,
fff1,
ff9f,
ff6b,
ff70,
010b,
00d0,
00ce,
00c3,
ff78,
ffa7,
ff24,
0063,
ff20,
fed3,
ff62,
ff59,
0069,
0043,
0051,
ff83,
ff43,
ff46,
ff6f,
ff1c,
ffdb,
006b,
ff93,
ff17,
0072,
0042,
0119,
0002,
ff5c,
ffd5,
0092,
0026,
009a,
00c7,
009b,
0045,
ffcb,
0053,
00fe,
0109,
00ee,
00c6,
00f8,
0108,
0055,
00d3,
0010,
ff3c,
0081,
0086,
00cf,
0015,
0123,
0110,
ffc6,
00f8,
ffd2,
00d0,
001d,
0020,
0067,
007f,
00e9,
0113,
0013,
00bc,
00b3,
00c6,
ff53,
ffac,
0055,
ff64,
fedb,
ffc9,
ffff,
004e,
001c,
0008,
ff48,
0016,
001f,
ff4f,
004a,
fff7,
ff5b,
00a8,
ff9e,
0048,
ff5d,
0063,
00c3,
0038,
00e4,
00fd,
ff5a,
ff89,
ff56,
ffe3,
ffff,
ff5c,
0070,
00c9,
ffd5,
013c,
00d4,
008b,
006e,
00b1,
0111,
007b,
00d3,
0068,
00f2,
00c9,
00df,
00cf,
00f6,
004f,
00c9,
00b3,
ffd7,
000d,
0177,
ffbe,
0138,
ffd7,
0093,
ff9f,
0055,
00bf,
00af,
ffa5,
00e3,
008a,
00ee,
0085,
005e,
fff9,
ffe7,
ff13,
0003,
0037,
0085,
fffa,
0039,
00f0,
ff1c,
0013,
010b,
001a,
0052,
ffa6,
ffc9,
00af,
0015,
ff99,
ff8f,
ff52,
ffb1,
00f7,
00fd,
ffed,
0045,
ff62,
ffcd,
0037,
0144,
0131,
0033,
0023,
0101,
ffca,
ff89,
0032,
0077,
0084,
ffe6,
00f2,
ffcd,
fffc,
0162,
ffba,
011e,
fff9,
ffc9,
018d,
0053,
00e8,
fff7,
0155,
011b,
0026,
007f,
ffa2,
00eb,
00e4,
0044,
00c4,
0019,
003e,
00ef,
ffcc,
00d7,
00f6,
ffc5,
ff92,
00d4,
00c3,
00ad,
ffc8,
ff59,
000e,
00af,
00ac,
0142,
0086,
ffdf,
ff91,
0117,
001a,
007d,
0031,
0075,
ffed,
0116,
0151,
0111,
0082,
011b,
0151,
0000,
010e,
0163,
010d,
0048,
004d,
015a,
00be,
ffd6,
00c3,
ff69,
ff59,
00e1,
010e,
0111,
0160,
0018,
014d,
0155,
ffaf,
0085,
00e4,
fff5,
00cd,
00cf,
ffef,
00d0,
0032,
0069,
ff2c,
005d,
0032,
00ec,
ff9c,
ff24,
0088,
0099,
ffc9,
0048,
ffde,
0012,
005a,
001b,
ff60,
0107,
0107,
0102,
00db,
0051,
0135,
ffa5,
0083,
00cb,
0183,
006d,
00a3,
0076,
0018,
0136,
00bb,
0004,
00fe,
0185,
006c,
0045,
0030,
0055,
ffc1,
ffb5,
00e2,
ffb8,
00b3,
009a,
0083,
00c7,
010c,
ffa8,
0102,
000c,
ffed,
006c,
005c,
ffdd,
00a7,
ffe9,
0116,
0045,
005b,
018b,
ffa1,
0158,
00d1,
0107,
ff6e,
ff79,
000d,
00c9,
0074,
ff94,
ffab,
00f2,
ffea,
ff83,
0044,
010a,
003b,
00b0,
000b,
002e,
ff8d,
00a4,
013e,
015b,
003d,
011a,
00c0,
01ab,
004d,
ffed,
0033,
0088,
016c,
00a2,
0089,
ffe8,
ffd8,
01a0,
001e,
015b,
00df,
ffc3,
0179,
0173,
ff83,
012d,
ff83,
0141,
012c,
00cf,
012f,
ffdc,
0069,
001c,
ffe9,
001b,
ffed,
fffa,
ffc1,
00c0,
0046,
001e,
00c0,
009b,
0145,
00d6,
009f,
00a8,
ff66,
00e9,
ff46,
ffe1,
ffbb,
ff7d,
ff93,
0146,
0146,
ffec,
007d,
fffd,
015c,
ffce,
009b,
0110,
000a,
0160,
0161,
00b6,
006c,
01a0,
01b9,
010f,
00bb,
00fa,
018f,
0103,
0034,
0112,
0110,
0112,
01aa,
0043,
00c8,
018a,
0055,
00e7,
0186,
ffa9,
0002,
004b,
ffac,
ff95,
00c1,
000d,
013d,
ffe2,
ffcb,
00b9,
000b,
00b7,
0080,
013f,
000a,
0145,
0156,
0054,
00c0,
ffc1,
011e,
00a7,
0118,
ff85,
00ef,
00b9,
0001,
0050,
00ba,
0032,
0055,
ffcc,
ff9f,
010c,
00b0,
004c,
00b3,
00fe,
ffec,
00fd,
01a2,
006a,
011d,
0198,
0182,
000d,
0185,
020f,
009e,
017a,
0139,
003e,
01ce,
0097,
005b,
0073,
00a7,
01e9,
01d7,
0078,
00fa,
0018,
0188,
00fb,
0188,
ffaf,
0032,
00cc,
0038,
0071,
ffe5,
ffa4,
ff9a,
012e,
ffed,
000b,
003c,
00d1,
0023,
ffb6,
0026,
0157,
0125,
0058,
017a,
0107,
00ed,
0021,
0022,
004e,
004a,
010d,
ff7c,
0107,
ffc6,
0035,
0104,
00f6,
0043,
0028,
ffee,
00fd,
0097,
ffcf,
00ab,
01af,
00c8,
0117,
0158,
0032,
00e9,
009f,
01da,
0110,
007f,
002d,
001c,
0142,
0123,
000c,
012d,
0027,
00a9,
01c9,
00b5,
017d,
ffd8,
00f0,
003a,
007c,
0145,
fff8,
fffe,
01a3,
00be,
ffba,
008b,
ffc0,
00e5,
0008,
00b0,
011b,
0159,
0049,
0022,
018d,
010d,
fff2,
ffee,
00db,
0172,
017e,
014b,
ff6a,
ffe3,
002a,
ffe9,
005b,
002b,
ffbe,
0063,
010b,
009b,
00fa,
0172,
ffe3,
00d7,
0062,
0169,
01ff,
00b6,
0053,
0109,
0086,
0083,
011f,
00d8,
0102,
0139,
0192,
0188,
01ea,
00b0,
00b4,
00b1,
00ad,
00ff,
005d,
0044,
010c,
012c,
003a,
0164,
0191,
019e,
ffe4,
01a4,
0068,
fff2,
0021,
001d,
ff9a,
015b,
ffc2,
00e5,
012a,
0095,
0018,
00ad,
0046,
00f5,
013c,
000d,
004b,
ffe9,
ffcb,
ffaa,
0182,
0145,
00a1,
0046,
0071,
00ac,
00eb,
0063,
00aa,
ffef,
0109,
0081,
00bc,
0101,
0013,
0193,
01fc,
00ba,
0145,
01a7,
012d,
015c,
018f,
0191,
019b,
00cd,
01e1,
0172,
010b,
00ae,
016a,
01e5,
0155,
0227,
0045,
019b,
0103,
fffa,
0134,
016f,
ffd2,
00d6,
015f,
0161,
00c6,
00b8,
00a0,
00d0,
ffed,
00de,
ff9d,
011f,
0002,
0134,
ffc8,
0075,
015e,
0176,
0013,
0141,
01e9,
01e4,
0001,
0193,
ffb0,
0163,
000a,
0169,
01a5,
0018,
0019,
006a,
0141,
fff4,
00ae,
002e,
016a,
014d,
0170,
00e2,
009c,
0189,
01b7,
01f8,
0163,
007c,
013a,
011b,
010c,
00c5,
0090,
001f,
0175,
010d,
01cf,
00d2,
00ca,
01cc,
020a,
00fd,
0101,
0050,
00b6,
0193,
00e7,
005d,
00e7,
016d,
01e4,
0116,
00c2,
00b3,
0078,
0086,
0088,
00bb,
0033,
ffaf,
ff96,
0138,
004e,
0161,
004f,
00a1,
00b2,
0063,
0141,
0156,
0115,
012f,
0069,
01ab,
0133,
00d5,
0054,
00ea,
0200,
0087,
0072,
010a,
01f8,
0218,
0228,
025e,
0126,
00ca,
013a,
00c6,
01dd,
01c6,
0271,
0286,
01ab,
0190,
016d,
019f,
01d6,
0100,
00b6,
00d0,
018b,
0093,
00f7,
0160,
00fe,
0057,
0004,
00e6,
00ba,
0167,
0050,
01bd,
0075,
01ac,
0094,
ffd6,
0000,
00db,
00ff,
012d,
0058,
00b9,
005d,
ffdd,
0126,
0059,
001e,
00b2,
00b7,
0021,
0008,
0048,
002e,
012e,
017a,
00cf,
fffc,
0049,
006e,
0018,
0138,
00df,
0103,
0151,
006d,
017a,
0125,
01a9,
0138,
00ec,
01ad,
00d2,
00c0,
0079,
0205,
0102,
013b,
0100,
0120,
0114,
0169,
01cc,
0116,
01a7,
00d8,
01d1,
01fd,
0209,
009a,
0099,
0007,
005a,
0047,
01f6,
0116,
00e8,
01fc,
004f,
0059,
0037,
0012,
0136,
0146,
0040,
ffde,
0122,
ffe5,
009b,
00c1,
00b0,
00ae,
01c1,
01a8,
0028,
0076,
006f,
0141,
00b8,
00e7,
014f,
018a,
0019,
0112,
007e,
0024,
01c9,
00ec,
0154,
00c2,
00d4,
0233,
01a8,
00a6,
0138,
01cc,
00ed,
0273,
0150,
01c0,
01f8,
0129,
00eb,
014e,
0246,
00e8,
0095,
01ea,
01d2,
00ac,
0176,
0107,
014d,
00ee,
015a,
01ed,
0192,
00ea,
0003,
0202,
0090,
010f,
0205,
0185,
0093,
0140,
003b,
0102,
00c1,
ff8e,
013a,
00c8,
00b9,
01ac,
00c8,
01ae,
00b4,
0136,
0148,
00d3,
01c9,
004b,
0168,
0064,
ffaf,
0059,
0137,
0008,
00c8,
0063,
0113,
0229,
0102,
00f0,
01db,
01b6,
0245,
0297,
0138,
00de,
015f,
00b6,
00f5,
01f9,
01cd,
02fb,
0277,
00a8,
01c6,
0158,
023c,
00da,
00e6,
0130,
0142,
0132,
008a,
0116,
0111,
0174,
00cb,
001e,
00d7,
0167,
010f,
0024,
003a,
0168,
0010,
00a5,
00f3,
00f0,
00cc,
0048,
0062,
ffe6,
0183,
00e8,
00b4,
01a8,
01a9,
016f,
01a5,
0181,
0008,
002b,
00e9,
0105,
0131,
012a,
0070,
00fd,
00a7,
01af,
007f,
00cf,
0173,
0240,
00ea,
0111,
0262,
0270,
02ab,
0261,
0200,
0204,
006f,
02b9,
027a,
028a,
0285,
0104,
01fd,
0265,
013c,
0163,
0231,
0173,
0164,
0249,
0062,
00e6,
0087,
01a9,
0011,
0180,
002f,
0073,
002a,
002d,
020a,
013f,
010b,
015a,
00a8,
012c,
0107,
0072,
0027,
ffee,
015d,
0080,
0184,
01f0,
00cd,
011e,
00cb,
007a,
00fe,
00b0,
0119,
fff0,
002d,
00a4,
00db,
004a,
014e,
0150,
0137,
021f,
01da,
0219,
0132,
0239,
0165,
0188,
0123,
00cd,
0265,
014a,
0239,
020e,
0324,
0124,
01fe,
0178,
011e,
01d0,
0295,
00c1,
0205,
0157,
0239,
01f6,
01ef,
002a,
0037,
01cd,
00ee,
00ad,
008f,
01b7,
0195,
014e,
01ad,
00e1,
0014,
00fb,
0061,
011f,
0122,
0193,
0002,
0117,
0014,
0120,
01ee,
008e,
013b,
01a1,
016e,
00bf,
0092,
00c9,
0028,
0112,
003a,
00ad,
0106,
00ce,
01dd,
00e4,
00d2,
00cd,
00fe,
00e8,
01aa,
01c3,
01d7,
02b1,
0148,
011a,
0243,
01ac,
011e,
01b8,
0184,
0293,
0177,
00dc,
017b,
0259,
011b,
01c1,
027e,
0252,
007b,
00a2,
01be,
0184,
017b,
0180,
0081,
0147,
0186,
011f,
00e6,
0162,
0135,
0126,
019a,
0114,
0134,
ffbf,
00ea,
0125,
019c,
0115,
00e3,
0091,
0194,
00da,
01c7,
0114,
0148,
0193,
0045,
0105,
018e,
ffe1,
0144,
00b9,
0074,
0023,
0131,
00fc,
01ac,
01f2,
00ed,
0299,
0140,
0242,
026c,
0179,
0244,
01f5,
00f3,
0261,
0188,
01fd,
0229,
02ed,
02bc,
010e,
02cf,
0243,
00f1,
01f3,
01f4,
01af,
0161,
021e,
00a0,
01ca,
01bd,
0111,
0007,
012a,
fff7,
0069,
017c,
01bb,
002e,
0054,
0078,
0144,
0137,
0153,
01b6,
00bc,
01be,
010e,
0139,
01a7,
00b0,
01e7,
01cb,
012a,
01f9,
01ad,
00e6,
01a1,
ffd4,
00b8,
000d,
0012,
0130,
012f,
00c1,
0162,
0135,
00c6,
00de,
0166,
0216,
02b9,
00fa,
02d0,
021e,
0143,
0164,
01d6,
01c7,
01f0,
0279,
02a5,
0120,
0216,
0226,
026d,
0218,
027b,
0237,
00fc,
0131,
00d0,
0178,
0185,
0164,
0112,
00df,
002a,
01f7,
00c5,
0022,
0089,
0180,
01f6,
0110,
00b0,
020a,
00b1,
0067,
0171,
0038,
0196,
007b,
01a2,
0166,
01a2,
011f,
01eb,
01a7,
00e7,
00c2,
000d,
009a,
002a,
ffd1,
0187,
00ca,
0034,
0177,
0241,
00f3,
016e,
00c8,
0166,
010a,
0102,
00dc,
01d5,
015a,
02a8,
0118,
01d2,
019d,
0285,
0158,
0316,
027d,
011c,
0173,
02d7,
00e7,
0252,
00b8,
0156,
00b3,
0115,
0023,
0192,
0069,
012f,
009d,
0148,
0137,
01b6,
0134,
010b,
01f6,
00f4,
00c7,
0188,
0055,
007f,
011e,
0036,
00f5,
007d,
01cd,
0072,
0070,
00ed,
01c0,
014b,
01b8,
011e,
01ad,
0203,
0038,
011c,
006d,
00a4,
00d3,
014b,
0049,
017c,
0067,
016b,
022c,
00e9,
01b9,
01b5,
0193,
01d6,
024a,
01c2,
01e9,
01a5,
014d,
0178,
0217,
025f,
02a8,
0209,
0225,
029d,
00f1,
0118,
00fb,
023f,
01b9,
012f,
00e5,
0020,
009c,
00ce,
0191,
0128,
018c,
008d,
0191,
0010,
017d,
0130,
01f8,
004a,
00b0,
009a,
01bc,
0061,
013d,
010a,
0059,
00a9,
0087,
00e2,
0291,
01f0,
01d5,
00a3,
018f,
01bd,
01b2,
01c9,
0100,
0030,
019e,
01d8,
005d,
0118,
0107,
01f7,
0225,
01aa,
011b,
027a,
0126,
00ec,
01fc,
0270,
021c,
016d,
006e,
025b,
0112,
0210,
01b5,
01ca,
0270,
0243,
0251,
013c,
00fc,
00dd,
00e7,
00a3,
0126,
0182,
00b9,
018f,
0182,
00d9,
0033,
01d2,
013a,
0164,
013a,
01e7,
017e,
0099,
014b,
00b7,
01b5,
0080,
01cb,
0172,
0181,
01c5,
0166,
028e,
0224,
0173,
023d,
013f,
01c6,
0096,
01d1,
012c,
0021,
010e,
007e,
0066,
005c,
0186,
018e,
0257,
0112,
01d2,
0086,
01b9,
00cb,
0144,
0284,
023a,
023c,
001d,
00d7,
01be,
01d4,
0175,
0211,
023d,
0221,
00d7,
01ec,
0227,
00fe,
01d5,
0204,
0169,
0201,
0198,
0046,
012d,
002d,
0056,
01ac,
01b2,
01f3,
0143,
0157,
0120,
0192,
0256,
0230,
00ac,
0085,
01d9,
0090,
021b,
0168,
0149,
00d6,
018a,
026f,
0127,
021a,
01e2,
00f6,
0161,
00d2,
011c,
00cb,
008d,
006a,
006f,
0174,
00f0,
01d7,
025c,
024b,
00b6,
0201,
0285,
025d,
0140,
01c6,
024f,
0065,
016d,
01d3,
014c,
00f2,
014f,
0087,
01a3,
013c,
013d,
021b,
008c,
00a0,
01cd,
015d,
011f,
0211,
0198,
00f2,
017b,
0076,
006c,
00cf,
00e7,
0070,
01b2,
01cc,
01dc,
0213,
009f,
0278,
0241,
00eb,
00f7,
020d,
015c,
0196,
0210,
0107,
023f,
018c,
0181,
00ca,
0186,
00ee,
00a6,
0120,
0051,
ffbc,
002d,
01b2,
0085,
00b7,
0191,
0088,
013b,
0090,
0091,
0108,
019b,
0182,
0148,
00a8,
007a,
01e5,
014a,
01c8,
0131,
0003,
01af,
0159,
008c,
010b,
021c,
017d,
0157,
01fb,
0067,
0200,
01c8,
0132,
00b1,
002a,
011f,
0044,
00f2,
0129,
0088,
0074,
002a,
0197,
00e3,
0220,
021e,
0208,
01f8,
00b5,
016d,
025a,
00da,
0224,
0250,
02fd,
0124,
00da,
0258,
0122,
01b0,
0143,
0097,
0073,
0063,
0199,
005d,
01be,
0100,
00fc,
01fa,
010b,
018b,
00e8,
0081,
00a0,
01e7,
00f1,
0105,
0211,
012c,
01fc,
011d,
00b9,
00cf,
00fa,
00fd,
0062,
0038,
013c,
00ee,
ff88,
013f,
0024,
ffff,
0158,
0144,
ff92,
00c5,
0087,
00d6,
014a,
fff9,
004a,
00c4,
00d1,
00fb,
0170,
00d1,
01aa,
01b8,
0092,
00a8,
01d1,
0030,
01da,
0019,
009e,
019e,
0040,
0131,
013d,
00c4,
0186,
0119,
021a,
0174,
0118,
010d,
00a0,
00f8,
00c2,
027d,
0198,
0223,
0167,
018e,
0248,
011f,
008c,
00fd,
0206,
0041,
0066,
00a4,
00d4,
0092,
0080,
001c,
01ea,
0140,
00b9,
007b,
ff93,
ff86,
fffc,
ff71,
001a,
010c,
0062,
00ff,
0045,
003a,
004c,
0061,
01a2,
015d,
0119,
00e1,
01ea,
014c,
01b8,
009b,
00aa,
00eb,
01c3,
00d8,
008e,
0178,
0035,
01a7,
0074,
002b,
0186,
00ad,
fff3,
0107,
0020,
0136,
00b4,
01db,
0122,
0195,
0146,
01df,
0178,
00fe,
0198,
0134,
00f0,
0169,
0108,
00be,
00ab,
00b9,
00b0,
011f,
01c1,
00ef,
0166,
0001,
000c,
018c,
01a5,
0002,
018f,
00f9,
005e,
007c,
ff92,
ff86,
ff65,
ffa7,
ffaf,
00f9,
ffa8,
0032,
ffe6,
0103,
0101,
004c,
0110,
00c3,
01d1,
00f4,
0011,
00fe,
0193,
0087,
0052,
008b,
01da,
0046,
00ba,
01b0,
0067,
016e,
003b,
ffca,
00f3,
000b,
003f,
0094,
0189,
0034,
01f1,
00f8,
01e1,
00df,
0057,
0202,
01f4,
0238,
021f,
019a,
0182,
00d3,
0099,
00b0,
00ff,
022c,
00fc,
0180,
0150,
006a,
0038,
01b9,
00cb,
00e0,
008d,
00c2,
002a,
ffc7,
ffad,
ffc5,
00f8,
ff85,
001a,
0020,
ffc4,
0084,
00e3,
0138,
000e,
ffed,
ffe3,
00da,
003a,
0034,
ffdd,
00af,
007b,
0107,
017b,
001b,
00ba,
0125,
ffe9,
010a,
009b,
0073,
0193,
003c,
0042,
008d,
017b,
005e,
0132,
015c,
00cc,
ffd0,
0063,
00d3,
0129,
007a,
ffdc,
00bc,
019d,
012c,
01ad,
008e,
01c8,
015c,
0112,
0031,
0166,
005b,
0184,
01da,
013e,
0058,
0151,
01cd,
fff5,
00ee,
ff7a,
ff38,
00c2,
0098,
006c,
003d,
0043,
ffcf,
ff7f,
0010,
0164,
0007,
0109,
0020,
009a,
018a,
009b,
006b,
01a2,
016e,
0016,
ffee,
0137,
003f,
00c2,
001e,
0120,
00d8,
ffca,
0159,
00fd,
000e,
ff87,
0011,
00ec,
0080,
ff5d,
ff66,
ff7e,
00e7,
ffd1,
00c6,
0055,
00f3,
00ef,
ffb6,
ff7d,
ffce,
fff0,
ffbf,
008b,
0008,
ffdb,
003e,
ffd7,
00cf,
01ec,
00cd,
0098,
017c,
01a9,
01a6,
00b3,
00f9,
0021,
ffd4,
ff60,
0026,
0028,
ff2c,
ff71,
ff7d,
ff3b,
010d,
ff84,
013c,
0088,
00db,
0185,
010a,
0159,
0062,
010b,
ffeb,
0102,
0079,
0179,
000b,
0098,
01a6,
00a3,
ffb4,
000e,
00dd,
ffe3,
00c1,
0008,
0060,
ffd0,
00f6,
ffc6,
00f2,
ff04,
0085,
ff55,
ff1e,
0113,
003d,
ffe2,
002f,
ffb6,
ff6e,
0039,
0036,
0046,
ffd5,
001b,
0076,
0095,
0140,
01b6,
fff8,
019e,
01c1,
00a8,
0074,
0008,
0015,
0071,
febc,
fefd,
ff20,
ff0d,
00be,
ffe4,
ffa5,
0016,
0064,
00b3,
0158,
008d,
0043,
0057,
0140,
0176,
004f,
0147,
00d0,
00fc,
ffef,
ffae,
011b,
009e,
00d3,
0101,
0057,
ffc2,
00d9,
ff7b,
ff40,
ffea,
0083,
ff2a,
0025,
fefb,
0098,
ffbe,
001e,
ff65,
ff7c,
0096,
0031,
ff82,
0055,
005d,
0088,
fff8,
0011,
ff63,
ffb5,
ff55,
ffaf,
00ec,
0103,
ffc8,
00dc,
0128,
002c,
00ef,
ffde,
ff61,
003e,
ff8a,
fefd,
fe9b,
ff68,
fed0,
ff5f,
ff41,
ff78,
003e,
0001,
0104,
0148,
00f4,
ffca,
00cb,
0112,
0127,
0116,
0157,
003b,
0035,
ff99,
005d,
0151,
010f,
0126,
0179,
ff98,
010f,
ff98,
00b2,
0045,
ff1b,
ff6a,
0098,
fecf,
ff3f,
fef3,
001a,
fef0,
ff3a,
fe9b,
ff47,
ff44,
ffd0,
fff1,
fff3,
ff86,
ff50,
ff3b,
ffc1,
ffdb,
ff4a,
fefc,
0094,
00e7,
006e,
016a,
0007,
010a,
0146,
0097,
00a7,
ff67,
ff82,
fff7,
001d,
ff07,
0073,
ff96,
001d,
00d3,
0030,
0054,
ff52,
00f8,
0025,
00fa,
0146,
ffd3,
0059,
019b,
ffe0,
00db,
000f,
0088,
007b,
0090,
0045,
015b,
ffe8,
ffe1,
00cf,
ffbc,
00b7,
ffee,
ff6c,
ff96,
003d,
0079,
007f,
ff52,
feb1,
003b,
ff48,
feb3,
ff9e,
ffa0,
ff7a,
ffe9,
fee7,
fe81,
0072,
ff71,
0066,
0009,
ff93,
006c,
0019,
ffe8,
ff3f,
00b9,
0136,
0074,
006d,
0030,
fff1,
feca,
fe65,
ffec,
002e,
ff81,
ff21,
feb4,
ffca,
ffa9,
ff15,
0085,
0079,
012a,
0145,
0147,
00ac,
0083,
0192,
0134,
0019,
00e2,
ffc3,
0057,
00ee,
ffe1,
ff62,
00fd,
0149,
00c2,
0059,
ff4e,
ff7d,
004e,
0009,
fe92,
ff14,
004b,
ff54,
ff15,
fe6f,
000a,
fe71,
fec1,
ffdc,
ff8b,
0052,
0013,
ff86,
ff7c,
0028,
ff4c,
ff86,
0080,
ffc6,
ff80,
fef0,
ffd8,
0060,
ffb5,
ff9f,
013c,
ffa5,
005a,
ff16,
fe4e,
fee3,
000d,
ff6a,
ff0c,
fef8,
fee4,
fece,
ffbd,
fee6,
fff7,
ffd4,
ff4f,
002c,
015e,
013f,
015c,
00bf,
ff8a,
004a,
0025,
0094,
007a,
0110,
ffcd,
ff61,
ffdc,
0127,
005c,
ffd6,
0059,
ff82,
004e,
001c,
0001,
ffec,
0007,
ffaa,
fff1,
feb1,
fed2,
feeb,
ff4a,
fedc,
ff00,
feba,
feac,
fe79,
ff00,
0058,
ff6b,
003f,
ff3a,
ff29,
ff82,
ff9d,
feda,
ff3b,
ffa4,
0124,
0036,
001b,
0036,
fe81,
ff99,
fe6b,
fed6,
ffa6,
ffc9,
ffd5,
fef2,
fff4,
ffc1,
00a5,
0075,
ff8f,
ff78,
ffb4,
004a,
001e,
0058,
0026,
00a3,
ffc3,
00b4,
00a5,
009e,
006a,
0090,
010d,
0045,
008d,
ffec,
00e0,
ffd7,
ff6a,
004e,
003e,
ff8d,
ff2d,
ffa9,
fec9,
feb7,
fea1,
ff3c,
0017,
003f,
fe87,
fe81,
ff86,
0038,
ffe3,
ff49,
0022,
0024,
002e,
fee2,
ffdd,
ff1c,
ffa0,
0050,
ff5c,
0013,
00b1,
ffb4,
ff71,
fe9a,
fe67,
ffb5,
ffd5,
ff40,
ff53,
ff70,
ffb0,
feea,
000d,
00b4,
00df,
ffe2,
ff4f,
00dd,
00de,
00f2,
fff4,
011b,
ff5c,
00aa,
00ea,
0048,
003c,
ff46,
ff23,
ff9a,
ffe1,
0116,
0090,
0136,
0105,
00cb,
0117,
009d,
ffda,
fed8,
ff21,
ff4b,
fedc,
0041,
ffe8,
ffd8,
ff3e,
fe94,
ffdf,
fec3,
ff14,
feaf,
005b,
fff6,
ffce,
fede,
ffc0,
fe7c,
fe68,
ff71,
fed2,
ffed,
ffe2,
0000,
ffda,
00a0,
ffd4,
fe7a,
ff4e,
ff20,
fe34,
febf,
fe3b,
ffb5,
ffb6,
0062,
ff78,
005c,
00a2,
ffff,
ffbd,
ff45,
005c,
ffdf,
00c3,
ffc8,
0056,
0009,
ff20,
0019,
ff8c,
ff29,
ffbf,
0056,
0028,
ffd8,
0020,
011f,
0125,
ff96,
0119,
ff38,
ff90,
002b,
ff01,
ff00,
fe6c,
ff88,
fefa,
ffd8,
ff02,
0042,
fed4,
ff51,
ff18,
febf,
fed3,
fe97,
ff70,
002d,
fef3,
0056,
ff28,
003a,
0023,
002e,
ffde,
ffcb,
0074,
00f3,
007a,
ff69,
fdec,
fec3,
fe8f,
ffcf,
000a,
ffd9,
ffbb,
fee2,
002e,
ff56,
0084,
000a,
0075,
0073,
006b,
0026,
ff4e,
00c9,
0065,
ff9c,
ff49,
fef8,
000b,
ff4c,
fedb,
0024,
ff10,
00ca,
00f5,
005d,
0008,
00f3,
0081,
0028,
fedd,
fe8c,
ffa8,
fe56,
0032,
ff8a,
ff98,
ff99,
feba,
0047,
fff1,
fffa,
ffff,
0056,
ff44,
ffc9,
feb5,
fe80,
fe80,
fe94,
fead,
fe5a,
fea9,
ff70,
fff1,
ff75,
ff82,
00f8,
004e,
ff1d,
fdd6,
fe4f,
fe51,
fe40,
ff8a,
feee,
fee4,
0079,
003a,
00cf,
ffa4,
ff44,
0003,
ff57,
0059,
000e,
00c9,
00d2,
0042,
0056,
006e,
00a0,
003c,
fef4,
009d,
009a,
00c7,
ff59,
ffeb,
fff1,
ffa9,
006f,
00c3,
ff49,
ffdd,
0024,
ff04,
fed8,
fede,
ff18,
fe98,
fea3,
ff31,
0016,
fec6,
fefc,
ff8a,
001b,
ffa9,
ff0e,
0016,
fe8f,
0011,
ff97,
fed5,
ffca,
fff1,
fe9a,
ff95,
0008,
ffb5,
ff44,
ff0d,
fe69,
fe6b,
fea5,
fecd,
feb3,
ffc7,
feb6,
00a2,
ff8c,
0039,
0014,
ffdf,
002e,
0086,
ff8e,
ff11,
0030,
ff35,
0014,
00c7,
007e,
0054,
fedb,
fed3,
ff8a,
ff61,
ff6a,
ffe1,
00dc,
ffe8,
ff73,
ff54,
0088,
002c,
ffbc,
fef7,
ffbc,
ff39,
ff8c,
ffcb,
ff51,
ffe5,
feaf,
00a1,
ff05,
0014,
003f,
ffaa,
ff87,
ff46,
ff73,
fff7,
fff3,
ffe8,
ffd9,
ffb7,
ff67,
0066,
ff58,
feb8,
fff1,
ff84,
0036,
ff5c,
ff5f,
ff6f,
ff28,
fe82,
fe7d,
0027,
0000,
ffe7,
00bc,
00e1,
ffe2,
ff40,
00ba,
ff28,
001a,
fef3,
ffa2,
0020,
ffb4,
0066,
009c,
008c,
ff1f,
fecb,
ff63,
fec6,
ff55,
0030,
ff0c,
ff39,
00d9,
fef4,
00c3,
ff2a,
0000,
002b,
fe6f,
ffac,
ff8b,
005c,
ffb5,
feca,
00a8,
ff47,
005e,
ff53,
ffd0,
0012,
ff88,
0062,
ffc5,
fff6,
0006,
feaf,
0032,
0041,
ffa3,
ff43,
002f,
ffb5,
fef4,
00db,
ff3f,
0000,
ff80,
fe28,
fe9d,
ff1f,
0005,
fede,
ffcc,
ff5d,
ff92,
ff7f,
0091,
002c,
005e,
ff3d,
0037,
ffb7,
feee,
00a0,
ff00,
00ac,
ff7c,
ff4c,
004a,
0036,
002a,
fea6,
ffd7,
fed7,
fed1,
ff76,
ffa6,
ff15,
fee9,
fed3,
fef2,
ff4c,
ffca,
0032,
004f,
002c,
ff7d,
feda,
0086,
ff3e,
fee1,
005c,
ff90,
fec3,
0026,
feb5,
ffdf,
0000,
ff24,
ff3e,
fe7c,
ff40,
ffd9,
0023,
feee,
fed6,
00b4,
ff5d,
003e,
ff4e,
ffe2,
fea6,
ff15,
fece,
ff93,
0063,
007c,
ffc4,
ffe9,
ff7b,
0026,
00f1,
0103,
ff11,
00f6,
0051,
ff32,
00b0,
000d,
0073,
ff32,
0051,
fff8,
ffca,
ff31,
ff4b,
fea7,
ff17,
fee3,
004b,
feb0,
fedc,
006b,
ff90,
ff29,
004a,
fead,
ff69,
ffc5,
001d,
0046,
ff62,
ffda,
ff1a,
0064,
001e,
fea8,
fffb,
ff01,
0048,
ffe3,
0091,
ffff,
0010,
0030,
ff20,
004e,
ffe9,
0098,
002c,
00ad,
ff66,
ff4a,
ff05,
fdfd,
feab,
fef6,
ff93,
0077,
0068,
00b0,
00d3,
0055,
ff34,
001f,
ff86,
ff74,
ffd1,
0088,
ffdd,
ffae,
0004,
0029,
004f,
ff7d,
fff2,
ffac,
ff91,
0042,
ff70,
ff15,
0002,
fe5d,
fedc,
fed6,
ff2f,
ffab,
ff6e,
0065,
005f,
fec9,
ffcd,
ff11,
fece,
00a8,
ffbd,
ffcf,
005c,
0088,
007a,
ff21,
ff04,
feb8,
fed2,
0006,
fecb,
ffc3,
ff29,
ff37,
ffc4,
ffb4,
0012,
0044,
fffc,
ff05,
00bc,
ff07,
ffac,
ff10,
000b,
ff2d,
ffdb,
fedb,
0079,
ff65,
0107,
005c,
ffd5,
002c,
ffba,
00b1,
ffed,
0032,
0067,
002a,
00ae,
00ab,
ffe3,
ffae,
fead,
ffb3,
ff58,
fff2,
fe9c,
ff65,
fe57,
fe7a,
ffc1,
ff10,
ffdb,
fed6,
003d,
ff7a,
fef6,
0071,
ffd4,
009e,
00bb,
0008,
ff48,
00aa,
ff5a,
ff8a,
0091,
ff6c,
ff95,
009a,
fefe,
004e,
fef2,
ff47,
0076,
ff88,
0025,
ff02,
0098,
ff22,
ffa5,
ff0c,
0057,
ffb1,
ff21,
ffb9,
ff11,
fed7,
ff44,
00a1,
00c1,
0004,
005a,
000f,
00cb,
00e7,
00bf,
ff6c,
ff00,
ff83,
0097,
00ac,
ff6e,
feea,
0067,
fefb,
ff01,
ff2e,
ff33,
ff62,
0007,
fee5,
ff65,
fed6,
0023,
fe4c,
fe9a,
ff70,
ff50,
004a,
0043,
0001,
0009,
007d,
00cb,
ffd9,
ff7f,
ff2a,
ffea,
fffe,
0039,
fef3,
0056,
ff88,
ff23,
fef4,
0034,
ff8b,
ff05,
ffd0,
febf,
00a8,
0003,
0048,
ff30,
003a,
ff3b,
ff25,
fe68,
0032,
ff8f,
0039,
ff11,
ffe6,
ffea,
ff47,
0032,
0006,
00e0,
00ae,
ffd3,
0088,
000e,
0015,
0049,
002e,
000a,
ffcc,
ff8a,
ffd5,
fea2,
ff1e,
fee4,
fed3,
fec3,
fe98,
fea8,
000f,
ffbc,
ffa0,
ffe9,
fe9c,
fed6,
ff07,
0091,
0082,
0033,
fef3,
0007,
00b7,
0055,
0093,
00ae,
006c,
ff87,
ffbb,
00b5,
ff8d,
ffce,
febe,
feb7,
0059,
fecb,
fec1,
0073,
fec7,
0075,
0051,
ff81,
0080,
fefe,
ff12,
ff72,
002e,
fe9f,
ff1f,
ff16,
007f,
ff86,
003a,
ffe4,
ffd1,
0002,
010f,
00e7,
ff1c,
ff7b,
ff62,
0062,
0023,
ff0d,
00b0,
007f,
fffe,
0009,
feff,
0024,
006d,
ff5e,
ffe8,
ff4e,
fe9c,
feb2,
ff0a,
ffe7,
0031,
004a,
ff0e,
ffe6,
00d5,
009e,
fee8,
ff82,
ff7d,
ffe8,
ff2d,
ffc8,
00dd,
0011,
ff53,
ff5d,
ff2c,
0001,
ff9e,
ff5a,
fffb,
ff6a,
0011,
ff43,
0087,
00c0,
ff67,
ff69,
00d2,
ffd2,
feb7,
ff09,
ff24,
ff07,
feae,
ff21,
0088,
ffbf,
ffb7,
ffdd,
0127,
ffeb,
0059,
00ae,
00ab,
00e1,
0026,
009e,
00cc,
fee6,
ff21,
005a,
ffd3,
ff06,
fe7c,
ff6e,
ffb0,
ff2c,
fe98,
fedc,
fe6b,
004c,
fea6,
ff44,
fec9,
ff7e,
ffec,
ffce,
ff76,
ffaf,
0035,
004a,
fff2,
ff6f,
ffbd,
ff5e,
003c,
feef,
0068,
ff4f,
fef9,
ffda,
ff28,
ff65,
0052,
ff03,
ff3b,
ff1a,
ffbe,
ff0b,
ff5a,
ff62,
ff5b,
00d0,
0021,
fee3,
ff52,
ff41,
007d,
ff9e,
000b,
00ca,
0135,
ff80,
0136,
0093,
00a5,
0055,
003c,
ff73,
ffce,
006c,
005e,
ffbd,
0038,
0025,
ff8a,
0058,
ff3f,
fe9f,
ff9c,
fef3,
ffa0,
feb2,
febf,
feb8,
feca,
ffa6,
fef1,
009f,
ffa7,
ffa5,
00c8,
ffca,
ffce,
ffed,
ffdc,
ff28,
ff22,
ffc4,
00bf,
ff67,
ff5e,
ff7d,
ffda,
ff8b,
fff8,
fe93,
fed3,
fefc,
ffc9,
fedb,
fef9,
ffac,
003f,
ffa1,
003f,
ff61,
fff3,
0028,
fee2,
fff4,
ff28,
0037,
0076,
ff62,
ff90,
0145,
0120,
002c,
00cb,
ff64,
ffbe,
0071,
00f4,
ff43,
fee0,
feca,
0071,
fee0,
ff90,
fed4,
ff5e,
0003,
ff49,
ff75,
0003,
0021,
feda,
0056,
fff6,
ffed,
ff49,
00e3,
ff44,
007d,
ff8b,
0021,
ff3f,
0009,
ff85,
ffb6,
00f9,
00c2,
00d8,
009e,
ff2c,
ff09,
ff34,
ff76,
fe93,
ffcd,
ff86,
ff81,
ffda,
ff5b,
ff40,
00b8,
ff5a,
004e,
001c,
ffc6,
ff12,
ff99,
ffac,
0080,
feeb,
ff91,
00b8,
005b,
0133,
00e6,
ffb4,
00e8,
ffd8,
ff6c,
00cc,
ffff,
fff9,
00aa,
ff32,
fef6,
fec9,
0019,
0049,
fe6a,
ff06,
ff7f,
fea4,
ffc9,
002f,
ffdf,
ff7e,
0037,
fec5,
004a,
ffb3,
ff0c,
00be,
0093,
00c9,
ffd3,
ff53,
ff76,
ffe5,
ffd4,
ff98,
ff65,
0119,
ff32,
00d8,
0025,
fed6,
ff31,
ff81,
0056,
ff9d,
ff55,
fefb,
002f,
00c3,
ffa2,
0002,
ffd7,
ff12,
0071,
fe41,
ffe8,
000d,
fec2,
fee4,
0081,
007c,
000e,
ff7c,
0071,
000b,
00a1,
ff79,
010e,
009f,
0122,
ff62,
00bd,
ffa5,
ff99,
0091,
ff88,
fe7a,
ffd4,
ff71,
ffa1,
0004,
fefe,
fed8,
ff60,
0048,
0054,
fedc,
006a,
00ba,
fefb,
fef1,
009f,
0076,
fff7,
ff2c,
00e7,
ff8f,
00c8,
0084,
ff52,
ff53,
ffd7,
ffb4,
ff06,
ff67,
0015,
ffdc,
ff0c,
0066,
fef8,
ffd5,
00f4,
0062,
006d,
ff11,
ff84,
ffa9,
ff39,
fedc,
fe3c,
ff1e,
fecf,
ff27,
ffc4,
0079,
ffc1,
013d,
0056,
0157,
000a,
0166,
00ae,
ffb6,
ffcf,
ffa8,
ff0f,
ff9f,
ff15,
ffa7,
ff3d,
ffd9,
ff73,
fe96,
fe91,
001f,
ff20,
0026,
ffd6,
ff30,
fee3,
febf,
ffde,
ffa6,
ff28,
ff6a,
ffc9,
ffe7,
ff37,
ff53,
ff4b,
0026,
0039,
ffcc,
0150,
ffb1,
ffd0,
00fd,
0009,
0066,
ff26,
ff9d,
fefa,
0077,
ff48,
ffc7,
ffd4,
00c2,
0106,
0042,
ff45,
fff7,
00dc,
fea5,
fe6b,
fe8d,
ff62,
0048,
ff54,
0033,
ff91,
0064,
0048,
0069,
003c,
014b,
ffad,
fffa,
00c7,
0129,
ffcd,
0014,
007b,
ffa7,
ff96,
fec9,
006f,
008f,
fecc,
0090,
0050,
003e,
0071,
0008,
ff02,
ff0f,
ff22,
004e,
003e,
ff63,
ff52,
ff85,
00ba,
00d2,
ffb4,
0023,
ffcb,
00f0,
ff75,
ff98,
ffc1,
00f1,
ffa7,
fff0,
ffcb,
ffb0,
fe99,
fed1,
ffd5,
ff4d,
ffd9,
0077,
0137,
ff51,
ff25,
0047,
ff8d,
ff34,
fe5a,
ff1f,
ff6d,
ff69,
ff70,
ff84,
ffac,
ff91,
0001,
009a,
0127,
003c,
009c,
013b,
ff65,
0110,
00aa,
ffdb,
0099,
ffa5,
007b,
ffa9,
ff27,
ff97,
ffc4,
ffaa,
fff8,
ff94,
ffef,
ffa8,
ff87,
006a,
fefd,
ff13,
0020,
fece,
00c8,
ff96,
ff75,
ff98,
00ba,
0098,
ffac,
0103,
ffd9,
003c,
ff66,
00d0,
0023,
0088,
00ad,
009c,
ffae,
ff65,
007a,
00a7,
0091,
00a3,
007e,
0136,
0080,
0084,
ffdf,
ffaf,
0011,
0013,
fe75,
fea7,
0007,
00b4,
ff6e,
0086,
ff87,
00b7,
ffea,
0113,
ffa6,
00e2,
0115,
ff6b,
0033,
001f,
ff72,
00aa,
ffc9,
0018,
ff1d,
0010,
ffbd,
fef0,
fec7,
fed8,
ffcf,
00b1,
0055,
ff97,
fed2,
feea,
fed4,
ff13,
00be,
0026,
ff95,
00bc,
ffef,
0020,
005d,
00b6,
0139,
0054,
0146,
010a,
0055,
ff94,
ffc8,
ff62,
ff3e,
ffa6,
0086,
00f9,
0125,
0182,
ffea,
00f6,
0044,
ff63,
0030,
ff6d,
fec1,
ff94,
0079,
0006,
ff93,
fee6,
ff83,
004a,
0099,
0077,
ffb1,
008b,
003c,
00aa,
ff7b,
012c,
0045,
012c,
0102,
ff9c,
005c,
0085,
0017,
ff32,
ffb0,
001a,
0000,
0006,
006a,
ff8b,
ff57,
febb,
ff64,
ff79,
ff19,
fee0,
ff40,
0060,
008a,
ff7b,
0042,
fff9,
ff8b,
ff83,
ffdc,
007c,
00c3,
00fa,
ff67,
009e,
009a,
ff74,
ffc0,
00b4,
0071,
016d,
00ef,
0194,
0049,
0074,
0093,
0015,
00b3,
0018,
ff28,
fe95,
ff9a,
0092,
003e,
fef1,
0004,
ff95,
fff5,
ffd4,
00f6,
ffc4,
001b,
ff43,
0072,
008b,
0069,
ff73,
000d,
00ee,
00ab,
005c,
fff7,
00bb,
ffca,
fffa,
ffba,
003d,
0035,
fee7,
0087,
ff6c,
00b6,
0030,
ffdc,
ff1a,
ffb6,
007d,
004d,
00b7,
ffc0,
ff3e,
ff1e,
012a,
0138,
0042,
0161,
00bc,
00a5,
012e,
0112,
0026,
005a,
0087,
0039,
0092,
ffb2,
0149,
ffc3,
0126,
ffbb,
00db,
ff79,
fe35,
fe4a,
fe90,
ff60,
ff0c,
ffc2,
ff78,
006c,
ff87,
ff31,
fff9,
000e,
0051,
ff38,
00ff,
ffd3,
00a9,
ff6c,
0153,
0078,
0098,
00dc,
0057,
00dc,
00bf,
ffe4,
ffc4,
ff14,
0022,
ffc8,
ff67,
0063,
00d9,
fff2,
00c4,
fed7,
ff38,
ff1d,
0017,
fff7,
ff3a,
ffd2,
ff87,
00eb,
0067,
fff9,
012c,
0009,
014e,
ffb7,
0046,
0080,
00c7,
ffaa,
ff67,
ff80,
001b,
00e1,
011d,
fff4,
ff91,
00fc,
0113,
00d5,
fe6e,
0045,
ffce,
fef8,
ffb1,
fece,
feca,
0033,
ff2b,
fedc,
ffa7,
ff31,
ff03,
ffe5,
ffb5,
0045,
00c7,
00d6,
ffa8,
00d5,
0118,
ff7a,
006b,
000d,
00d2,
ff71,
ffe1,
0023,
fff3,
00db,
00e4,
006a,
ff4d,
ff79,
fee8,
feee,
ff2d,
ff86,
00b4,
ff62,
ff9f,
ff6b,
ff75,
00bf,
ff3c,
003a,
ff7f,
fff3,
017a,
00e8,
ff78,
ffe3,
0125,
0138,
ffb8,
0091,
0119,
009b,
003b,
0107,
002a,
0031,
0030,
ffa2,
ff36,
ff0f,
ff44,
fea6,
ff73,
ffae,
feaf,
008b,
fef6,
0014,
ff7c,
ff3b,
00ee,
ffc9,
007f,
ff8a,
ff65,
0127,
0006,
0083,
ff9a,
0073,
008e,
ffb7,
00c1,
0072,
00c2,
0017,
00c4,
ffeb,
008e,
0014,
ff11,
ffa4,
0064,
00b3,
feff,
00dd,
00c9,
ff26,
00bf,
ffc1,
0033,
00f6,
00b1,
ffb6,
00ba,
ffdb,
ffe2,
002d,
0189,
010d,
00f6,
0111,
0036,
0022,
0058,
00dd,
ffd2,
000a,
fffa,
011b,
0151,
018d,
ffc6,
0059,
ffa7,
ff30,
feae,
ffcd,
ffa5,
ffd8,
004b,
0006,
fef5,
fff5,
ff90,
ff61,
00df,
fffb,
0026,
0162,
ff7a,
ffd8,
00dd,
0136,
ff4e,
fffd,
00eb,
ff25,
003a,
003d,
00e5,
ff94,
ff47,
005f,
010a,
0108,
ff34,
fff8,
00ac,
ff50,
00a1,
00f2,
0049,
ff8c,
fff0,
00e0,
0054,
008a,
0114,
012c,
011c,
014c,
ffcb,
ffa4,
00cb,
016b,
004f,
0134,
ff97,
00ce,
008f,
ff24,
009b,
ff4d,
008e,
0063,
ff70,
ff68,
fedb,
ff08,
0083,
fe98,
ff54,
ff5a,
ffa6,
006f,
ff30,
fefa,
003a,
00ba,
00c6,
ffcc,
ffe4,
fffe,
010f,
ff96,
0025,
ff71,
004b,
ff8b,
00ae,
ff18,
ff98,
ff28,
0115,
ffda,
0029,
0068,
ffd1,
0062,
ff97,
ffd1,
ffb2,
ffd3,
0042,
ff67,
00de,
006a,
0133,
0030,
0053,
017f,
01b9,
001f,
0140,
00b9,
fff3,
002b,
0053,
018b,
00bc,
00ae,
0095,
ffec,
ffbf,
ff80,
ff5b,
ff6c,
0042,
fff5,
002a,
fed2,
ffcc,
007b,
ff10,
ff80,
ff91,
ff5d,
003c,
0094,
001c,
ffaa,
001a,
ff41,
ffad,
0021,
00ba,
0106,
013f,
fff5,
ffea,
001f,
ff65,
0081,
ffa9,
ffe8,
0073,
ff3f,
004c,
ff71,
ff50,
ff7d,
00d4,
ff57,
fff6,
ff55,
ff57,
ff70,
ff8a,
0054,
ff8d,
007b,
0153,
003a,
01a0,
0127,
01a9,
0090,
010e,
01e0,
010f,
0173,
011d,
ffb1,
ff99,
ffbb,
ffac,
011c,
fffc,
ffa2,
fff0,
ffa1,
00e3,
00e8,
fed0,
fea6,
0059,
0076,
fff1,
0070,
0066,
006d,
ff1e,
fec6,
ff9b,
ff81,
005b,
0117,
011f,
0106,
00d6,
fff5,
005e,
ffc0,
0046,
00b3,
010e,
ffc9,
0027,
00c9,
0027,
ff5b,
fff0,
00eb,
ff68,
0040,
00f0,
ffac,
00ac,
ffa4,
ffcf,
ffac,
00f5,
00fe,
00b3,
0067,
013f,
000c,
013c,
ffe9,
01dd,
008c,
01d4,
01a0,
0019,
fff1,
ffdc,
0102,
0085,
005c,
ff6d,
ff9a,
0028,
0096,
ffbc,
00bd,
fff5,
014f,
0057,
0088,
0019,
fec6,
febf,
008b,
ffdf,
fee9,
ff9b,
0014,
0061,
00c2,
ffde,
0116,
ffd2,
0055,
ffff,
ff9a,
011a,
00ba,
ffa4,
ff73,
00b0,
ffff,
003c,
ffce,
00f5,
013b,
009f,
ff84,
0071,
ff5d,
0064,
0017,
ffe9,
0028,
0004,
00ae,
0104,
0022,
0187,
019a,
0020,
01ba,
fffd,
001d,
00d4,
0203,
018d,
0151,
00db,
009a,
01de,
00b3,
005e,
003c,
0108,
0045,
ff70,
ff6d,
00fc,
00a8,
00e3,
0149,
fff8,
ff04,
fe9c,
ff0e,
fee1,
0015,
ff60,
0066,
ff21,
008b,
ff67,
fff5,
ffdf,
0045,
ffa9,
0117,
0131,
ff9b,
005b,
00f5,
0116,
ff8d,
00f0,
003b,
ff75,
ffed,
fff2,
0045,
fff1,
ffe1,
006e,
0024,
00a5,
0090,
010b,
009e,
0020,
ff8d,
012f,
0023,
0091,
016d,
ffd3,
003f,
01cb,
0145,
007a,
0170,
00fa,
00d4,
0160,
0119,
01d2,
0067,
0038,
002d,
011d,
00e5,
0115,
0029,
005d,
0128,
002d,
016b,
ff77,
ffb8,
feaf,
ff9a,
ff7a,
fee4,
0045,
ff06,
ff0e,
ff06,
0083,
008c,
0057,
00b1,
ff97,
0001,
0058,
0015,
0053,
0136,
ffac,
0068,
ff6d,
0111,
ff76,
004d,
ffe5,
0114,
0071,
007b,
0058,
ff8a,
0008,
00f8,
00fc,
ffd9,
001b,
ffb8,
00a1,
007c,
013d,
ffc2,
00e6,
001d,
0109,
003b,
0073,
0039,
00bc,
0071,
0197,
0113,
00f2,
0097,
0043,
00a3,
ffcc,
ff8a,
ff32,
0062,
0121,
ffbe,
018c,
0151,
fff8,
0028,
ff64,
ffed,
ff85,
ffd2,
fed5,
0091,
009c,
ff11,
0075,
0059,
0024,
00fe,
001e,
015e,
0092,
ff94,
010f,
005a,
0114,
0146,
ffb9,
0108,
0034,
ff5b,
0111,
ffae,
00ac,
ffbf,
00b5,
0082,
0081,
0121,
0112,
ffb2,
0027,
002f,
0174,
00af,
ffa8,
005a,
ffe2,
0001,
00ef,
0081,
0169,
0144,
01a2,
0047,
0044,
00f2,
00cb,
002b,
0003,
013f,
fff9,
00e7,
00d9,
ffaf,
00ec,
ff9e,
019e,
0106,
ff49,
0073,
ff9e,
fe95,
fec2,
00a0,
ff57,
fee4,
ffe7,
ff6a,
0068,
00ae,
ffc3,
0027,
ffdd,
0016,
0075,
005d,
0178,
ffe9,
0143,
ffaf,
00fe,
fff2,
002c,
ff73,
0093,
ff8f,
013e,
ffa4,
014c,
0150,
001d,
0022,
0135,
0152,
00d9,
0133,
010c,
0000,
fffc,
ffba,
009a,
00fe,
ff9c,
016c,
0182,
010c,
0099,
005e,
009d,
0034,
fffb,
ff8b,
ffc6,
ffbd,
ff54,
ff14,
00d4,
ff54,
0065,
0011,
00b0,
01da,
ff42,
ff66,
ffb9,
ffb7,
005a,
ffe6,
003e,
ff5e,
ff0d,
ffe0,
0030,
0034,
ffdd,
ffe7,
0113,
ffbe,
ffcf,
ffbd,
0000,
ffd9,
fff5,
0000,
00c7,
012d,
005b,
ffd7,
00d0,
ff8f,
00b0,
fff8,
ffd3,
ffff,
ff52,
ffb8,
00e3,
ffde,
0144,
ffd2,
002a,
00ab,
008f,
ffdb,
0015,
00f6,
00e7,
005c,
ffe4,
fffd,
012b,
ffd1,
00dc,
000c,
00dc,
00cd,
0089,
00d9,
ffde,
000a,
0038,
0097,
ffb4,
0033,
0165,
00ee,
0088,
ff91,
fe68,
fe8a,
fee6,
ff5b,
0061,
00b9,
007c,
ff9b,
0011,
ffc7,
ff73,
0079,
ff83,
ff96,
015d,
ffee,
007a,
00bd,
0076,
ff8e,
007b,
00e2,
009a,
ffb2,
ffc5,
ff8c,
0044,
0074,
0137,
ff6b,
ffc2,
00c3,
fff7,
006d,
011a,
ff9f,
000e,
007b,
ffae,
00f9,
016d,
012e,
0050,
0027,
0112,
0153,
0163,
00dd,
014f,
fff4,
ff76,
006a,
00e8,
ffac,
ffc2,
ffaa,
003c,
0078,
ff70,
015b,
0177,
00f2,
ff92,
004b,
fe92,
ff81,
ff99,
ff35,
ff69,
0001,
fecf,
fff2,
00a0,
0032,
ff6e,
005d,
ff55,
0075,
014e,
00e0,
009f,
00d3,
0031,
ffe3,
0001,
0171,
0144,
00d6,
00ab,
00c6,
ffc0,
ff81,
00c3,
ffe0,
ff93,
0086,
005c,
fff3,
ff70,
000e,
0164,
001c,
00c9,
ffb2,
ff7d,
fff4,
fff3,
ffa6,
0097,
0001,
0098,
0101,
011b,
00f7,
ff94,
ffa2,
ffed,
ff3c,
ff2f,
ff57,
ffbd,
ff71,
0003,
00a6,
0137,
00b9,
ffa4,
ff82,
0008,
ffad,
fff7,
ff0e,
fe75,
0022,
ff3f,
00ba,
0006,
ff02,
0098,
ffec,
00e9,
00ef,
00b3,
00ce,
fffb,
00b1,
00dc,
ff94,
00b7,
00ed,
005a,
0021,
0070,
003c,
008c,
0002,
012e,
ffaa,
003a,
0024,
ff3b,
00b5,
00bf,
0141,
00c9,
0104,
00c0,
00f6,
ff84,
0124,
00e0,
0013,
fffb,
0104,
ffa9,
0057,
0147,
002c,
ffe3,
00b5,
ff6f,
0074,
00e4,
fee3,
009e,
ff71,
0055,
0164,
00fa,
01d8,
ffa7,
ffef,
fe8d,
fe67,
ffdb,
fef7,
fee7,
ffa3,
ff2a,
ffba,
0061,
00ca,
ff60,
0002,
ff91,
00af,
ffea,
ffdf,
ff89,
0019,
007a,
0169,
ffee,
0074,
015a,
ffd4,
fff2,
002a,
00ef,
006d,
00dd,
ffb9,
0079,
0114,
0077,
0121,
00a5,
ff6f,
ffab,
ffe9,
0034,
ff84,
00c3,
ff7c,
ffda,
00f9,
0136,
ffd0,
fffd,
00a8,
ffaa,
ffb1,
ffd7,
ff35,
0041,
0033,
006f,
ff78,
ffd9,
ff15,
0000,
0035,
018f,
0192,
0037,
ff61,
ffc4,
ff0a,
ff69,
ff56,
fea1,
fe68,
0085,
ff74,
fed6,
fef1,
006e,
ff95,
00bb,
0084,
002b,
0041,
00f5,
ffff,
ff61,
001c,
0178,
ffd9,
018d,
ffa9,
ffc3,
0055,
007d,
004c,
0118,
00a0,
ff7d,
00b8,
0061,
00a8,
ff6c,
0049,
00dc,
006c,
0036,
00d2,
ff80,
00e5,
fffc,
ff66,
ff72,
fffb,
0035,
014a,
ff9c,
00b4,
00e7,
ffc5,
ffb2,
00ac,
ff4e,
0046,
ff27,
0032,
00a4,
006e,
001f,
0108,
ff37,
fe7b,
fe9f,
ffac,
ff64,
ff10,
ffcb,
ff2b,
ff8c,
0038,
ff13,
ff6a,
007f,
ff7f,
00f2,
ff5d,
ffb8,
ff55,
00c3,
0015,
0066,
ffca,
00d5,
0131,
0153,
007a,
00b7,
00ad,
0113,
0166,
016b,
00c9,
005f,
0084,
000e,
00b1,
0113,
001d,
000c,
00c8,
ff76,
0086,
ff7d,
009b,
ff6c,
014f,
0003,
ffe0,
ffbf,
fff2,
0066,
005e,
ff8b,
00c0,
ffa1,
00ab,
00aa,
007b,
ffd4,
ffd9,
004c,
00fd,
01aa,
002e,
0047,
ff31,
ff41,
ff19,
fe39,
fdd3,
ff49,
ff3d,
ffd6,
fedf,
ff63,
ff84,
0087,
ffc1,
ff9b,
0089,
00f3,
ff80,
0001,
0133,
00c1,
ffdc,
ff91,
ffdb,
007c,
00f9,
00c0,
0119,
007b,
009b,
00cc,
00ef,
ffbc,
006a,
ffef,
ff76,
ff7a,
0004,
00a0,
ffc7,
ffdf,
000e,
0045,
ff72,
008b,
0053,
ffcc,
ffc1,
0061,
ff8d,
00b8,
002e,
00d4,
007e,
0058,
00f3,
ff74,
00ce,
ff09,
ffba,
ff8a,
008b,
00f8,
005e,
ff2c,
fed2,
0001,
fed7,
ff5e,
ff62,
fe2b,
000f,
fe66,
feda,
ff97,
00ca,
ffd4,
ff10,
ffaa,
005a,
ff27,
ffc2,
ffac,
00d3,
ffb7,
0081,
015d,
fff3,
019a,
001a,
0090,
ffea,
017a,
0147,
ff81,
ff6e,
ff9c,
0027,
00a2,
fff8,
008f,
0074,
00a5,
002d,
ffcf,
0017,
0002,
005b,
0100,
ff4a,
ff87,
002e,
ffa6,
ff73,
ffcd,
00f3,
ffa6,
ffd6,
ff2a,
ff2c,
0023,
0020,
ffed,
ffa0,
0014,
007c,
0153,
00e5,
fede,
fffc,
ff09,
fe16,
fdb2,
fe92,
fea5,
fe42,
0023,
ffb1,
ff59,
ff23,
00d1,
fffb,
ff1b,
0049,
008e,
fffc,
ff67,
ff69,
005b,
ffb2,
ffdc,
0041,
0093,
0103,
00c4,
00b2,
ffc0,
ffce,
0118,
005a,
00c7,
0019,
fffe,
fff5,
005f,
ffd4,
00a7,
003b,
ff45,
00ce,
000d,
0009,
ff9c,
00ef,
0080,
0120,
ffcc,
0056,
0093,
ff39,
fffb,
00df,
ff2a,
ffdc,
ff2f,
002f,
ff62,
ff6d,
ffa0,
0077,
0011,
010b,
ffd9,
ff9e,
ff99,
ff31,
fe63,
ff61,
ffdd,
ff6a,
feec,
002d,
000d,
0071,
ff44,
ff5d,
ff9e,
0040,
0027,
0016,
ff36,
0110,
0027,
015a,
ffd1,
0188,
ffe9,
0011,
0079,
006c,
011b,
000a,
00d9,
0045,
ffa7,
ffb7,
ff40,
ffd9,
0062,
005d,
001a,
00c9,
002b,
fff4,
ff6f,
ffce,
0096,
0036,
ff53,
00ab,
0094,
0063,
ff26,
0041,
0073,
00c0,
00dd,
ffb3,
ff51,
00c2,
0078,
00bc,
00cf,
0014,
00c5,
0010,
ffe1,
ff29,
ff29,
fee8,
ff01,
fe01,
fff1,
ff28,
fff5,
fec4,
00a8,
ffe5,
009a,
00d3,
00eb,
ff83,
0036,
0105,
0035,
000b,
0055,
0053,
0159,
007d,
0091,
ffbd,
ffbb,
00a9,
ffc7,
ff71,
00cf,
ffa3,
003e,
0091,
0097,
ff1c,
ff13,
0074,
00e6,
fff3,
ff18,
ff46,
0068,
fff1,
ff18,
00e5,
ffb8,
00b6,
00a9,
ff4e,
00c6,
ff86,
00d8,
00da,
00e9,
ff71,
fef3,
fec8,
00a5,
00c1,
ffa3,
016e,
0105,
010d,
00f1,
ffce,
ff50,
ff6b,
ffd9,
0017,
ff50,
fe71,
ffe4,
fecc,
fee2,
0083,
ff81,
ff4b,
008a,
0055,
ffdc,
00d3,
000d,
00c4,
009c,
ffab,
017d,
ff8a,
002b,
0128,
003c,
0051,
ff94,
0008,
ff88,
0018,
0045,
ff32,
005d,
006c,
0084,
0001,
003b,
ff13,
ff46,
00b4,
ff53,
00c3,
0047,
0022,
ff51,
00a8,
0014,
ff6f,
000e,
ffca,
0067,
0081,
ff48,
ff80,
00af,
ff3a,
0009,
ff56,
005e,
0093,
01ab,
0202,
0055,
00f6,
004c,
ff7f,
0086,
ff30,
006b,
fee5,
ff9e,
00de,
00d3,
ffc9,
007d,
ffb7,
ff9a,
ff5d,
013c,
fffd,
ff9b,
00fe,
0092,
012b,
0083,
003f,
0186,
00bb,
014c,
ffe0,
010c,
fff3,
00cf,
0031,
ff2f,
ffac,
00bb,
0074,
00d3,
0031,
ff1b,
0042,
00b3,
00a8,
ffb3,
005e,
00db,
0076,
ff36,
ff98,
00cd,
001f,
ffdf,
ffad,
ff9f,
005d,
ffc0,
ff49,
ffcb,
fef6,
00d6,
0124,
0117,
00b5,
01cd,
0183,
000a,
ff9a,
ffee,
0104,
ffc6,
004d,
ffb0,
002e,
ffda,
ffc0,
0040,
ff9c,
00c9,
006c,
0161,
010f,
0144,
005d,
00e1,
010b,
0142,
0033,
00a9,
00ff,
003b,
00fc,
00bb,
ffce,
ff59,
00fc,
0040,
0013,
001b,
0036,
ff62,
fff2,
008a,
fff7,
0033,
00be,
00c4,
0014,
00be,
ff03,
ff39,
ff18,
ff3c,
0076,
ff6f,
ff3f,
ffc7,
ff99,
00c1,
00ab,
00e5,
00d9,
001c,
ff42,
ffd2,
ffca,
0048,
0081,
0100,
00d1,
0163,
007f,
00e0,
006c,
ffc2,
ffaa,
ff22,
fffb,
0001,
00a7,
0128,
0075,
014f,
0072,
003c,
0113,
014c,
017d,
0008,
011a,
ffd2,
010c,
ffee,
00a4,
001e,
00a2,
0013,
ffc1,
0107,
ff96,
ff90,
0038,
ff7b,
0035,
ff23,
ff6a,
ffd5,
ffb1,
ff84,
ffd6,
00b4,
00e1,
ff03,
ffb6,
ff9f,
00bb,
00dc,
ff14,
ffbf,
ffbf,
00e2,
0028,
007f,
0014,
008b,
ffe7,
0063,
0048,
007a,
0079,
0022,
fff6,
019c,
0196,
ffa8,
0067,
fffa,
005d,
00b3,
00cf,
0034,
ff36,
feee,
0000,
000d,
0009,
ffca,
ff7b,
fff2,
00b5,
0093,
00c1,
0093,
ff42,
0089,
ffe4,
ffed,
015b,
0127,
ffe7,
01cf,
0095,
0157,
0197,
00db,
010a,
0160,
018f,
023d,
012e,
0107,
017a,
01dc,
0130,
014c,
00b1,
0131,
00e1,
ff2b,
00a0,
ffc2,
fff1,
0058,
ff5b,
000f,
fffd,
ff06,
007c,
0074,
0031,
0018,
ff5c,
fff8,
ff46,
00bf,
00ec,
00a9,
ffa1,
00ad,
00ef,
00cd,
0037,
ff93,
ff72,
ff54,
ff3a,
00c0,
ff00,
fffb,
00b0,
0018,
fec5,
fed2,
fef2,
001a,
0087,
00a0,
00b2,
ff81,
ffb8,
ffec,
ffe6,
0060,
00cc,
008d,
0174,
022c,
01ff,
018e,
0205,
021d,
01aa,
012d,
0130,
01c2,
013b,
0176,
00c4,
ffc9,
0057,
0058,
ffaa,
ff20,
0007,
ff09,
fef6,
fffe,
fea1,
ff17,
ffdc,
fe87,
ff7a,
ff70,
ff7d,
ffbd,
0036,
0038,
001e,
ffce,
00c2,
ff4c,
00b8,
00ca,
0107,
00d6,
00d5,
0091,
00b2,
ffca,
000f,
00e3,
0047,
0056,
0041,
ff47,
0007,
fedf,
0031,
0082,
ffa2,
0078,
ff9e,
007d,
ff02,
0002,
0039,
011c,
0139,
0123,
0003,
0107,
002f,
009d,
0069,
0183,
00a9,
002f,
0161,
0043,
0007,
0106,
0175,
00cc,
ffde,
0040,
0062,
0058,
ffb8,
003f,
feba,
ff2c,
fe4d,
0027,
ff04,
0045,
fe98,
ff5b,
ffc1,
fedf,
ff48,
0035,
ff49,
fef5,
ffb9,
0073,
ffd0,
0123,
00e4,
fff1,
ff1b,
006a,
ff30,
ff98,
0035,
fff9,
00b6,
fece,
0086,
0085,
0063,
fea9,
fec8,
ff2c,
ff49,
feec,
ff13,
ff3b,
fef7,
0026,
0018,
00c0,
ffff,
ffc2,
0122,
0002,
0118,
00af,
0179,
fffe,
0051,
010a,
0076,
00b8,
0018,
010e,
007e,
0070,
ffcb,
00e2,
ffbe,
002e,
fff4,
ff71,
fec0,
fe6d,
0007,
ff75,
ff28,
001c,
0020,
fe88,
000a,
0072,
0055,
006c,
ff21,
ff01,
0053,
0008,
ff8c,
ffc3,
ff7d,
00fb,
0022,
ff7d,
ff71,
0040,
ffd2,
ff33,
fffa,
ff24,
ff20,
ffb8,
ff34,
fff0,
ff7f,
fef4,
000b,
fff1,
fe84,
0012,
fe68,
fe85,
ffd3,
ff8a,
004f,
ffab,
ffe1,
006d,
001f,
ffbd,
0100,
0025,
ff41,
0070,
ffc1,
0038,
0094,
ffda,
ffb5,
0006,
fef1,
ff3a,
ffca,
feba,
002d,
ff02,
ff85,
fff9,
fff0,
ff95,
fe9b,
ffb4,
ff2f,
fea6,
ff9e,
0062,
004a,
00a8,
ffe3,
ffc4,
004b,
ff56,
ffd2,
00b2,
ffbd,
ff79,
00d1,
004f,
002f,
ff91,
ff24,
001b,
00bc,
0037,
fe97,
ff28,
fe3c,
0001,
fee9,
ff69,
ff90,
fe08,
feb2,
ffd1,
fe75,
ffcd,
ffc7,
ff8c,
ffe0,
ff36,
fe6f,
0011,
ffbb,
ff6f,
febb,
ffcf,
0018,
ff39,
ffca,
feff,
feee,
ff5c,
0006,
ff10,
ffae,
feba,
0029,
ff57,
0036,
fe51,
feb3,
ff5e,
004c,
ffb5,
ffae,
005e,
ff01,
fffd,
ffbe,
ffb1,
00c8,
ffe4,
ffc6,
0041,
ff3f,
ffcc,
ff2a,
0101,
0122,
fffe,
feef,
00c6,
00e5,
002b,
ff2f,
ff91,
003a,
0064,
ff82,
ff30,
fe76,
fe19,
ff93,
ff23,
fe49,
ff04,
fed7,
ff0c,
fee0,
ff0e,
ff26,
fe4b,
fe4d,
fea2,
fea9,
ff0f,
fe63,
ff52,
ffb9,
ffa8,
ff5a,
ffd2,
000e,
ffaa,
fe2c,
fecd,
fe37,
ff70,
fe7d,
ff9a,
feef,
ffb4,
ff64,
0036,
fe66,
fffe,
004f,
fec8,
008a,
ffef,
ffdb,
005a,
0021,
0030,
ffef,
ff48,
00f1,
0078,
ff12,
00e3,
ff06,
0006,
00c5,
00af,
ff87,
ffe7,
0096,
ff6a,
00aa,
006a,
ff95,
fef5,
0096,
ff4a,
ffae,
ff49,
fe31,
fe0c,
ff65,
fed7,
fe30,
fe01,
fea9,
ff36,
fefd,
fde7,
ff01,
ffcf,
fe6e,
fdf7,
fec2,
ff98,
ff7d,
ff8d,
0018,
ff40,
feba,
ff94,
fe70,
ff46,
ffd0,
fe62,
fe66,
ff19,
ff7d,
ff91,
feda,
fe61,
fe2f,
feb3,
0056,
ffbc,
ffa1,
ff05,
0016,
ff11,
ff96,
0075,
0013,
00ce,
006a,
0045,
fffe,
ff8f,
fef3,
ff88,
ff77,
ff99,
ff91,
0014,
ff76,
00f1,
00af,
009e,
ff63,
fede,
0062,
0026,
fe9d,
fffb,
ff0c,
ff35,
ff58,
fe90,
fdc8,
fdf2,
fdc2,
fe2d,
fec4,
fe74,
fdcb,
ff89,
fe61,
febc,
ff4e,
fe53,
ffde,
0066,
fec3,
ff3a,
ffa1,
ffba,
fe37,
fde4,
fe0c,
fe40,
fe0f,
fec7,
fff4,
ff3a,
fe7c,
fefb,
fedf,
ff18,
fe6d,
feb1,
ff6e,
ff47,
0043,
00dd,
0056,
00da,
007b,
0028,
00be,
00b0,
ff31,
ff8d,
002f,
0085,
006f,
ffe3,
ffaf,
009f,
0126,
00cd,
00bf,
ff33,
ffcc,
0042,
ffac,
0002,
ff57,
fff5,
ff65,
feee,
fdcb,
fe14,
fda0,
fd7c,
fdcf,
fe85,
fe5d,
ff4f,
ff8b,
ff72,
feca,
ff30,
feba,
ff81,
0064,
ffef,
ffe0,
ffe0,
fea9,
ffbb,
fe90,
ff68,
fe76,
fdfb,
fe68,
fff3,
ffba,
ff94,
ff1e,
ff9d,
fec0,
ff1e,
ff2b,
004f,
fff8,
ff1e,
fee0,
006f,
0073,
00e4,
0000,
010a,
002b,
ff9c,
002b,
ffbe,
0040,
0085,
010a,
006d,
ff9f,
0043,
ffd9,
000b,
ff9f,
0026,
0076,
fef4,
ff41,
ff09,
0051,
ffe6,
ffbe,
feb1,
ff5e,
fefb,
fe8e,
fdf6,
ff1e,
ff48,
fdff,
ff19,
ff90,
ff18,
ffa8,
fe60,
fea6,
febd,
ff2e,
ff23,
0059,
ffaf,
ff90,
ffec,
fe21,
feda,
fedc,
fdda,
ff06,
fe28,
fe33,
0005,
fe88,
fffd,
ff69,
fe64,
fff1,
ffd7,
ff6e,
008f,
ffc9,
00b4,
0077,
0045,
ff83,
ff21,
0077,
0052,
00ff,
0089,
fff4,
ffd5,
ff6a,
009f,
005f,
000c,
fff1,
00bf,
012e,
00ef,
009a,
00db,
ff04,
0088,
ff1c,
fe96,
ff33,
ff88,
ff3b,
fec0,
ff42,
fea6,
ff4c,
feee,
fe86,
ffa4,
ff30,
fe03,
ffbf,
fe36,
0007,
fed2,
ffe6,
ff22,
0068,
fedc,
0010,
fefb,
ff42,
ff60,
ff46,
ff95,
fe8d,
fec8,
ff06,
ff34,
ffca,
feb7,
000c,
ff74,
ff8a,
feff,
0049,
fed4,
0045,
ff14,
00ad,
ff24,
00a8,
ff41,
0045,
00e0,
fff3,
0057,
0043,
fffc,
0000,
0073,
00b7,
0070,
ff81,
ffba,
003d,
0009,
0004,
fffa,
0093,
ff66,
ff96,
ff67,
004b,
0022,
fff4,
ff65,
fff1,
fe8f,
ffb9,
ff88,
ffaa,
fee2,
ffba,
fed1,
000a,
ffa5,
ffcc,
002a,
ff9d,
00bc,
00a6,
ff24,
ff6e,
ff91,
fe4a,
fdfb,
fdc2,
fe39,
fe4a,
fec8,
003c,
0023,
ff49,
ff85,
ff0a,
fec2,
feb1,
ff5b,
0068,
000b,
003f,
0077,
0039,
ff50,
ff95,
00e1,
0120,
000b,
ffeb,
ff49,
ff68,
ffa7,
ff78,
0116,
0140,
0001,
0148,
0169,
0116,
0113,
0006,
ff9b,
00d2,
00e9,
00d2,
ff59,
006c,
ff5c,
ff73,
fff8,
fee4,
fe4e,
fe4e,
feae,
ff88,
ff33,
ffb1,
ff5c,
ff7e,
ffee,
ffa5,
febf,
000e,
00c3,
005e,
0042,
ff5d,
ffca,
ff6f,
fec1,
feda,
feb9,
ff8a,
ff53,
feb1,
fee6,
ff3f,
ff46,
ffa2,
002f,
ffdb,
ffd6,
002e,
feef,
0027,
ffb4,
ff93,
ff3f,
0095,
00b1,
ff48,
0061,
ff4d,
ff1f,
005f,
003d,
00e1,
00d6,
ffcf,
00ea,
0139,
00f2,
ffd0,
00e9,
0079,
ffd3,
0047,
00d2,
00ff,
fef8,
0075,
ff01,
ffd1,
feca,
ff13,
fef8,
fea5,
ffc4,
fe4e,
ff4b,
fe99,
ff2b,
febd,
ff97,
fea7,
fec2,
ffca,
0071,
ffd0,
ff5a,
fff1,
fe71,
fe05,
fe00,
ff36,
fed2,
febe,
ff3c,
003d,
ff2a,
feb4,
ffba,
ffe0,
ff07,
fec3,
ffc6,
0095,
ff4d,
ffd6,
009f,
00b7,
ff62,
0068,
00d8,
0028,
00e3,
0029,
ff67,
ff78,
00b8,
00ad,
ffda,
0159,
00f6,
014b,
ff9b,
0105,
0131,
003f,
ff8c,
008f,
00f7,
ff62,
ffdb,
0044,
ff16,
00cb,
0011,
ffb8,
ff03,
fef3,
ffa2,
ff99,
fee5,
ff92,
ff5b,
ff91,
ffc2,
0016,
ffb7,
ff02,
ffd1,
ff22,
feb2,
fed6,
fe9b,
ffb9,
ffc8,
fe14,
ff18,
fff4,
ff98,
ffa6,
0058,
fec4,
feaa,
ffad,
fef9,
0035,
ff73,
ff05,
002d,
002e,
ff5d,
0091,
0048,
ffa5,
004e,
00f3,
007b,
002e,
ff5f,
007d,
0141,
ff78,
000c,
00cb,
010b,
00d6,
ffda,
00b8,
ffb2,
0062,
00b7,
ffc8,
ff89,
008a,
ff70,
00af,
ff92,
00d3,
0037,
ff39,
ff10,
ffc2,
fe7a,
ffa4,
ffed,
ff8a,
ff78,
fe4b,
fe87,
fee2,
fef6,
ff9d,
fecd,
fed4,
fed4,
fe68,
fe22,
ffb8,
fe19,
ff5c,
0000,
0029,
ffcb,
ffa8,
007e,
ff1a,
fed6,
ff1b,
0017,
ff12,
ffed,
0095,
ffb8,
ff7f,
ffd6,
001b,
00c8,
ffbc,
0067,
0036,
014b,
ffb2,
007c,
ffeb,
001f,
004d,
016e,
0024,
ffff,
0148,
00b3,
0057,
016b,
003b,
00b5,
fff6,
0110,
0007,
0122,
0106,
ff39,
0058,
ff0c,
006d,
ff1c,
ff82,
ffb3,
fe88,
ff5d,
fef0,
ff16,
fea8,
ff6b,
ff73,
fe82,
ffa9,
ff5d,
0009,
ff2e,
ff79,
ff35,
fe45,
ff72,
ffef,
fe7b,
ff82,
0074,
ffe3,
ff79,
0029,
002f,
007e,
fffe,
0049,
002a,
00b4,
0118,
0136,
0108,
0012,
015f,
00ac,
0151,
0086,
ffa7,
0112,
00f8,
ffd9,
0142,
ffe0,
004f,
0198,
0190,
00d3,
0041,
ffb4,
0000,
0069,
00a3,
ffbf,
0132,
001f,
fff4,
001b,
0065,
ff37,
ff8d,
ff6f,
ffb3,
ff09,
fecb,
000c,
ff44,
fefd,
feec,
ff53,
ffd1,
fec5,
fe7d,
ff3b,
ffb7,
ff16,
ffc7,
ffac,
001b,
ff92,
ff1f,
fec2,
ff29,
ff83,
ff6f,
007b,
ff61,
ff6e,
ffe1,
001b,
004a,
002a,
ffce,
002f,
000d,
ffda,
011e,
0027,
0056,
016f,
006b,
0038,
005f,
005e,
ffb0,
005e,
010d,
0059,
011e,
0079,
ffef,
ffd9,
011d,
0048,
00cc,
0027,
004c,
0123,
ffd9,
0196,
00bd,
009b,
00e2,
00c9,
ff72,
0049,
ffd0,
ff7c,
0022,
fe70,
ffb8,
ffac,
0014,
feeb,
005d,
fff2,
ffb2,
000b,
ff94,
ffc8,
ff4a,
fe80,
002b,
ffa0,
ff1c,
ff23,
0026,
ff4e,
ff6b,
ff94,
ffc9,
fef7,
ff8c,
ff12,
ffc1,
0004,
00c9,
008e,
ffbe,
0158,
ff8a,
00f0,
0021,
0072,
0006,
00f4,
0185,
00e5,
0032,
014f,
00cd,
0194,
01b5,
016a,
0005,
0054,
0160,
00ff,
008c,
ffea,
01c0,
ffe1,
00d2,
00b5,
00e1,
0070,
00c7,
00fc,
ff25,
0062,
008c,
0015,
feb2,
fee7,
ff83,
ff35,
ffea,
fedf,
ff88,
feec,
0010,
feda,
ffec,
fe95,
ff01,
0065,
ff74,
ff3e,
00aa,
ff1d,
ffde,
0064,
ff81,
ff22,
002a,
ff6c,
ff45,
0063,
ff1e,
00ff,
ff7a,
007b,
0157,
0070,
0121,
ffde,
0152,
01c2,
0096,
0087,
01c5,
01a6,
0027,
01b2,
016b,
00b2,
0128,
00c9,
0047,
ffed,
ffe6,
00b9,
00c2,
00b9,
0006,
0116,
0055,
0159,
ffcf,
0164,
0063,
001f,
003e,
feee,
ff2b,
ff30,
ffad,
0037,
feca,
005d,
fef2,
ff9c,
feff,
ff2a,
0062,
ff7a,
0093,
001f,
fefc,
ffb8,
ff0b,
ff3c,
0012,
ff2e,
ff59,
0099,
ff6a,
ff68,
ffc8,
00af,
0015,
ff9e,
0026,
ff3e,
015f,
004a,
ffc8,
0023,
0197,
00a3,
ffe8,
01a7,
017d,
01b9,
00c8,
014e,
0136,
00f5,
0017,
016c,
0047,
0195,
0169,
0102,
0016,
fff0,
0005,
fff5,
00d0,
002d,
00d2,
0080,
0182,
ffad,
00a2,
002f,
0112,
008d,
ff32,
ff37,
0028,
000c,
ff82,
0015,
ffcf,
feb4,
ffec,
fef4,
ff8b,
ff9e,
009f,
006c,
0018,
ffdb,
ff4e,
003c,
fef5,
00b6,
ff11,
009d,
0005,
ff38,
00ac,
0097,
0010,
ffe4,
0005,
0003,
00e9,
0134,
00ff,
0075,
ffbe,
016e,
017e,
016a,
002d,
0109,
014d,
0121,
015e,
fff0,
0000,
007f,
00b1,
0159,
0176,
0070,
0112,
006a,
fffd,
01e3,
01b0,
0161,
009a,
0150,
0175,
0029,
008e,
00f9,
0080,
ff54,
ff35,
0097,
00d2,
0031,
006d,
ff21,
fee5,
ffdc,
0025,
feec,
ff63,
ffcf,
006f,
009e,
ffbc,
ff50,
00a3,
ff25,
fef4,
0059,
ff71,
0026,
0109,
ff7e,
ff51,
0043,
ff61,
009c,
00d4,
001d,
0052,
00a7,
00b7,
000b,
009f,
01a4,
01a2,
01bd,
017d,
00ca,
015d,
00e3,
00e5,
01bf,
004d,
0046,
00d0,
00af,
01b0,
00a2,
00e5,
018e,
01d7,
0197,
01f3,
01c0,
0165,
0096,
012d,
0125,
001b,
0165,
0022,
ffc6,
0053,
00e2,
00c6,
00ea,
00d6,
fee3,
ff87,
002b,
fefc,
ff90,
ff11,
ff4d,
ff3a,
009a,
ff0b,
0046,
00c3,
0089,
ff2d,
ff7a,
ff68,
ffa0,
00f4,
fffb,
ff1a,
ff11,
ff7b,
00d6,
ff9c,
ffc4,
0010,
00a7,
0034,
005b,
0166,
0052,
00cd,
006a,
00ed,
009e,
0190,
006f,
0058,
009e,
00aa,
ffcc,
008b,
00a1,
019b,
005b,
01f7,
01bd,
005d,
0144,
0130,
0072,
010e,
01fb,
008d,
01b5,
ffe4,
0182,
00c0,
001b,
000d,
00a6,
fff7,
fff8,
001f,
0082,
00bb,
ff83,
ffef,
002e,
ff3d,
ff58,
ffb2,
00af,
0048,
006e,
ff2f,
ffde,
003a,
001b,
ff7f,
006a,
00d3,
0005,
00a4,
00a7,
00f8,
ff91,
011c,
ffc2,
00e6,
0000,
0038,
0050,
0021,
0112,
0160,
00a5,
0035,
006c,
00de,
01b7,
0181,
008c,
0119,
0196,
00af,
0084,
00a6,
00eb,
00c1,
00f0,
000a,
0166,
017c,
00b7,
0206,
0138,
00a9,
011d,
01df,
ffe6,
003d,
0031,
0111,
00cb,
00c5,
0148,
00b3,
ffc7,
ffd3,
0056,
ff24,
ff3d,
ff62,
0063,
ffd0,
ffd4,
ffd8,
ff16,
ffb8,
00d3,
ffb8,
fffb,
00aa,
0167,
010c,
ff90,
ffa1,
0016,
ff79,
00cc,
ffe6,
0143,
0050,
00e2,
0076,
0077,
00bb,
016b,
0102,
010e,
0109,
0146,
0126,
00a6,
016e,
015b,
0127,
0077,
0121,
018a,
00d4,
011d,
0130,
012d,
014b,
01e3,
002f,
01c7,
0151,
0088,
01c1,
0043,
0194,
00d0,
01b6,
011f,
01da,
0101,
004f,
ffd0,
ff6d,
ffc8,
00ce,
007e,
0101,
ffe3,
ff3a,
00ac,
0096,
fefa,
ff24,
ffff,
003b,
0111,
ff58,
015b,
0140,
008b,
ffef,
002f,
00ca,
0032,
ff67,
005d,
0054,
0008,
0141,
001f,
019b,
0159,
0221,
016b,
007c,
002a,
014e,
012e,
01c3,
01a4,
0005,
01b5,
016f,
008f,
0151,
007d,
0126,
006a,
0007,
0029,
0025,
0172,
01b9,
0073,
020b,
0105,
0115,
00d3,
0002,
00f8,
0118,
0079,
0003,
00bc,
00c5,
0197,
00ed,
ff87,
007f,
014b,
ff8f,
013c,
ff5d,
0035,
ff5a,
ff7f,
ff2b,
ff6f,
0056,
0108,
ffb7,
ffab,
fffc,
008a,
ffeb,
fff6,
011c,
0133,
ff98,
00a0,
00eb,
ff7a,
0138,
0041,
00a6,
01e1,
009a,
0162,
0186,
00c2,
011b,
0176,
01d6,
0141,
00b4,
015e,
00c2,
005d,
00a3,
ffde,
0161,
0010,
ffda,
0118,
0146,
019e,
01e7,
0131,
019b,
00ff,
00f2,
012f,
01e3,
0143,
012a,
0192,
00a0,
0018,
01b3,
0163,
0061,
0005,
ffc1,
0055,
002d,
0061,
00dd,
ff6c,
ff66,
ff2d,
00a4,
00ff,
00b3,
00c2,
000b,
0050,
019d,
fff1,
0043,
002e,
0176,
0099,
ffe3,
0026,
0081,
0119,
0182,
013a,
00df,
00a3,
0079,
01ee,
01ee,
0025,
01a6,
01fa,
012c,
ffeb,
0107,
00bc,
0030,
0066,
004c,
0172,
0105,
01a8,
015b,
0051,
0051,
ffe3,
010a,
0037,
00fc,
00bb,
01e7,
01f2,
015a,
0021,
ffdc,
015b,
0089,
00f5,
00f2,
011e,
0102,
00eb,
003e,
00bd,
0119,
ffdc,
ff75,
0109,
ffcd,
ffaf,
ff9d,
ff9a,
00b5,
000a,
00ef,
0164,
005a,
00bc,
0005,
017b,
0126,
ffa9,
ff9e,
00c0,
00fa,
009b,
0149,
004c,
00dc,
00aa,
0151,
01fe,
0161,
015b,
00c1,
0170,
0152,
006b,
007a,
00db,
016a,
0136,
0172,
0132,
ffe1,
00c7,
0051,
0186,
0072,
019d,
ffe2,
0059,
012b,
0150,
01d0,
00dd,
011f,
0000,
0022,
00a3,
0035,
00ac,
0199,
01a1,
0140,
000f,
ffbf,
010c,
0078,
ffa9,
0090,
ffdc,
ffa6,
00ac,
00cb,
ffc7,
ffa3,
0109,
0113,
0111,
016c,
0048,
0162,
fff2,
ffe0,
0025,
fff0,
008e,
fffe,
ffd8,
00aa,
0138,
0106,
0169,
0097,
0016,
00af,
01a8,
017b,
ffe9,
011a,
0169,
014e,
015a,
ff9c,
0091,
003f,
ff9e,
00ce,
00a0,
0109,
010a,
0044,
0184,
00d0,
019c,
01e3,
01bf,
015b,
0166,
0068,
0172,
011c,
0051,
ffe1,
00b3,
ffed,
ffbe,
0190,
012c,
00e9,
0038,
ff9f,
015c,
010d,
0018,
0068,
0108,
002d,
0020,
012c,
ffd9,
00a7,
0031,
ff75,
0106,
002b,
0152,
ffa7,
ffc9,
00c1,
00d9,
0132,
0039,
0123,
00a3,
0046,
0003,
0164,
009e,
ffe8,
019a,
0003,
0037,
0111,
0087,
004f,
00f9,
0060,
00a2,
ff72,
0154,
ffb6,
0008,
0132,
0121,
ffda,
014e,
00df,
0014,
0168,
00ef,
01ac,
00ce,
0089,
011f,
ff55,
010a,
0079,
00a5,
0119,
0060,
00aa,
000c,
0079,
017d,
014e,
0112,
00ed,
0155,
00f8,
ff6f,
fffd,
ff7a,
0146,
0073,
0027,
0018,
002a,
0021,
ffcc,
0119,
0110,
005a,
00dd,
0054,
0005,
ffbe,
ffa3,
00ad,
003a,
00a6,
018e,
00c3,
0050,
0091,
00eb,
00e3,
0025,
007e,
ffa4,
00b7,
013d,
003c,
009f,
0061,
014a,
0112,
001b,
ff9a,
0065,
0053,
ff9c,
ff77,
ff95,
00c1,
006d,
0105,
ffe2,
ffb5,
ff35,
000c,
ff43,
ff66,
004d,
00ed,
012d,
00ec,
ffb2,
0156,
ff6a,
0005,
0129,
012d,
0098,
0072,
0143,
ffb3,
ffbb,
ff66,
ff93,
003d,
ff46,
ffef,
0067,
00b9,
ffb7,
00f5,
00fd,
ffbf,
ff66,
0125,
0123,
00f8,
0034,
015a,
00e9,
007f,
015f,
012d,
0128,
ffa3,
00b8,
ff88,
0112,
0149,
ff93,
00f8,
008b,
ff8f,
00cc,
0110,
009e,
ffee,
fff5,
008a,
007b,
ffa7,
0033,
0117,
ffc1,
0086,
ffbf,
ffd9,
ff13,
0091,
ff89,
ff5f,
fff4,
0144,
0085,
013d,
ffd3,
0086,
0084,
ffdd,
00b1,
0039,
ffc9,
0020,
00f3,
006f,
ffcb,
ffb1,
00ba,
009f,
00a7,
ffd4,
ff16,
ff27,
ff8f,
ff2f,
ff73,
ff57,
fff5,
0002,
00f9,
ff9d,
ff5b,
ff71,
fff9,
0104,
ffbf,
ff52,
0130,
ff44,
0053,
0005,
0008,
ff78,
00da,
0091,
ffa2,
0081,
00ff,
00c4,
ff87,
ffa1,
005d,
ffea,
0038,
011c,
ff9a,
ffd9,
ff32,
008b,
0036,
0063,
ff6e,
0084,
fef0,
ff0e,
ff9e,
0082,
ffba,
011c,
0074,
00e5,
000d,
008c,
ff8d,
009e,
ff97,
0040,
00cb,
0077,
ff3c,
ff66,
ff1e,
ffb7,
ffe9,
ff1c,
ffbb,
ffc6,
ff90,
feee,
0009,
ff69,
ff41,
ff71,
000e,
ffb4,
ff39,
00ca,
0054,
0071,
ffc6,
00ff,
00da,
00d7,
ffa6,
003a,
ff6c,
013c,
ffb9,
ff67,
004d,
0018,
0054,
0024,
001a,
0090,
ffc5,
ff69,
ff83,
00ec,
000e,
004a,
ffa9,
ffef,
ffbb,
000c,
0067,
ffef,
fee2,
0059,
001e,
00f2,
ff9e,
ff92,
ffe0,
0144,
ff73,
0003,
ff6d,
ff46,
0094,
0009,
ffac,
ffb9,
ffcd,
0008,
009e,
feae,
005f,
fe7f,
ff6d,
fe5a,
ff22,
ff2c,
fe6d,
fecc,
ff56,
003f,
fedf,
0053,
ff1a,
00fd,
ff9f,
009e,
006b,
0042,
ffa7,
009c,
00c1,
ffe5,
010a,
0035,
fffd,
00a0,
00fc,
fff7,
00b3,
0014,
ff75,
00c0,
0111,
ffd3,
ffa8,
00bd,
00bf,
0018,
ff66,
ffea,
ff57,
fecd,
fff6,
ff8d,
fef4,
ffd7,
0001,
ff0d,
00cb,
ffb5,
ffe8,
00d0,
0021,
ffda,
ff62,
0039,
0080,
0093,
ff9e,
ff98,
00d4,
00b3,
0005,
fe6e,
fea9,
fefd,
fed5,
ff9f,
fee9,
fe29,
fe9e,
ff4f,
ff35,
ff3b,
fff8,
ff40,
ff64,
ffe6,
009c,
ffc1,
ff77,
00bd,
ff60,
ffe5,
fffc,
ff7b,
00fc,
000c,
00d0,
ffe8,
00a8,
ffc9,
007d,
00b5,
00d7,
ff84,
005e,
ffe0,
ffba,
ff42,
ff17,
0099,
005e,
ff97,
ffeb,
fe67,
fe8a,
fffe,
fee5,
ff69,
003d,
ffa1,
00d7,
ff5b,
0018,
ff7b,
00a7,
0011,
014f,
fff2,
00cb,
010d,
0078,
00af,
ff4a,
000d,
fec7,
0042,
0028,
0003,
fe36,
ff0d,
ffbf,
ffd1,
ffbf,
ff3b,
ffa2,
fece,
ffcd,
009d,
0018,
00a7,
0022,
ff92,
ffec,
ff82,
000e,
0142,
0142,
ffe5,
0148,
ffc7,
ffa6,
ff88,
00cf,
ffdd,
0084,
ff95,
ffde,
ff8b,
0007,
ff4a,
009e,
0028,
0020,
008a,
feb2,
ff44,
fea5,
ff7d,
ff0a,
0031,
ff41,
fec2,
ffb3,
ffe3,
ff6b,
006a,
ff31,
00d8,
ff98,
0008,
00fc,
fff5,
ffd7,
013b,
007b,
ffeb,
ffa7,
fef1,
ff49,
ff26,
ff1d,
fe22,
fe2b,
fecb,
ff4f,
fff1,
ff2a,
ff7f,
feea,
0004,
fecd,
ff97,
004c,
ff3c,
ffbd,
ff6a,
ff6c,
ffb1,
000f,
ffc0,
007a,
00de,
0003,
0024,
0001,
0093,
0051,
011d,
006a,
ff78,
ffe3,
0030,
fffc,
010d,
fffa,
ff9c,
ff3d,
ffdc,
ff63,
001a,
ffb9,
fef7,
ff3c,
ffe5,
ffa5,
ffe1,
fea8,
fef9,
ff6b,
0092,
ff71,
0157,
00d9,
0156,
0129,
ff79,
ff77,
012b,
ffe1,
0099,
00e2,
001a,
001b,
ff0d,
0003,
ff63,
fe2f,
ff4e,
feeb,
fe65,
ff34,
fec7,
fe55,
002d,
ff00,
0027,
ff33,
ff65,
ffbc,
011a,
0010,
0050,
0183,
00ed,
0129,
01c1,
00eb,
006e,
0063,
009b,
00a8,
011c,
00f7,
00e2,
012d,
006b,
ff8f,
ffaa,
ffe3,
ff6b,
00f1,
00a9,
ffb0,
fe8d,
fe63,
fe8e,
ff79,
feda,
fe3e,
ff8b,
ff80,
fed9,
0093,
ff50,
0100,
ffc9,
0019,
0079,
0025,
004a,
ffc3,
fffa,
ff69,
ff81,
fff1,
00a1,
ff99,
0027,
fee0,
ff4e,
ff18,
fe3c,
ff56,
feea,
ff55,
fec7,
fead,
fe5a,
ff44,
ff21,
fff6,
ff48,
00f8,
00c6,
0090,
002d,
0195,
00a8,
01ca,
0154,
0109,
0193,
ffc6,
00a1,
0095,
ffe9,
016a,
fffa,
0163,
0068,
ff6c,
000c,
0116,
0095,
fff2,
ff67,
00a5,
ff9d,
fe73,
febb,
0022,
fee6,
000c,
fed0,
0056,
fee5,
fedc,
ff76,
004c,
0068,
00b9,
ffe6,
ff86,
0153,
0001,
00fc,
0112,
ff39,
ff47,
0040,
feba,
ff20,
ffcd,
ff65,
ffff,
ff7c,
fe57,
ff27,
ff95,
fec4,
ffcc,
fe67,
ffdf,
003e,
ff2f,
001d,
0101,
0087,
ffa8,
01ae,
ffed,
0138,
016b,
01da,
010b,
0176,
017d,
00ee,
00ac,
016e,
0070,
0182,
00ba,
ffcc,
ffba,
0040,
ff77,
0054,
00c7,
ff71,
007b,
fe85,
fef2,
ffb5,
ff69,
fe65,
ff8f,
ffda,
ff65,
ff6d,
0019,
ffa3,
00f2,
0024,
0140,
0014,
0030,
00e3,
ffea,
ff6b,
fff9,
00f0,
0028,
0048,
fece,
0016,
ff78,
ff1a,
fea3,
fed5,
ffe8,
ff2a,
fec5,
ff4c,
fe73,
000c,
ffb9,
fffb,
ffac,
ff4d,
ff52,
012c,
ffe5,
01aa,
0020,
0144,
01ec,
014f,
0089,
0032,
00cf,
0118,
016a,
0180,
01aa,
00b3,
00c3,
0120,
0013,
0001,
0008,
ff86,
ffdd,
0099,
fea8,
ff2e,
ffcc,
fe5f,
ff4d,
ff56,
fe80,
fee9,
0041,
ff84,
ff1a,
ffa0,
ff67,
0020,
fff7,
0078,
0132,
0161,
ffb7,
ffef,
0028,
ffe6,
0013,
ff40,
0088,
ff56,
ff12,
ff2d,
0032,
ff77,
ffee,
ffd7,
fe9e,
fe23,
ff89,
ffd1,
feec,
feb7,
008f,
00e9,
0067,
016e,
00d9,
012d,
00e8,
016f,
0030,
0079,
010a,
004b,
0019,
0128,
0081,
012b,
0063,
0141,
0003,
016b,
0040,
00f5,
ffc9,
0080,
00cf,
ffca,
ff23,
0049,
0026,
fe72,
ff10,
ff5f,
fedb,
000b,
fff4,
febd,
0048,
ff19,
ff2c,
ff48,
00f6,
0010,
ffa7,
0003,
ff94,
ff44,
ffff,
0047,
ff5e,
ffdb,
ff54,
001f,
fed5,
ffd0,
ff8e,
fea8,
fef8,
ff48,
fe71,
fe68,
ffbc,
004a,
fe9c,
ff82,
00d4,
010f,
00e9,
0199,
00c3,
01e3,
005d,
0184,
0042,
01a2,
00ac,
ff75,
00fd,
0033,
0113,
01ff,
00cf,
015c,
014f,
ffdd,
ff7e,
ff5f,
0088,
ff7a,
0028,
ff9d,
ffa7,
fffd,
fe7e,
ff6e,
fe34,
fe4f,
fffc,
fe57,
ff28,
fed3,
ff86,
febc,
ff26,
0049,
ff50,
00f5,
fff2,
0002,
0073,
ff31,
ff68,
ff94,
ff91,
006b,
fffa,
fecd,
ff80,
fe5b,
fef8,
fe6c,
ff1a,
ff38,
febc,
ffcc,
feeb,
feef,
0024,
ff9a,
00a3,
0061,
0154,
0132,
00ab,
0068,
00a4,
01a2,
0194,
0030,
ffb8,
00a7,
008e,
010d,
0054,
002a,
0139,
000c,
0061,
010a,
015a,
0057,
ff50,
005f,
ff37,
00b4,
ff25,
fef1,
ff79,
0005,
ff65,
ff0b,
ff89,
fedb,
ff4c,
ff55,
ff9a,
feef,
ffd3,
00f6,
0080,
ffda,
ff97,
0001,
ffc4,
ffe7,
00a0,
0062,
ff1f,
00b9,
fedd,
ff49,
feca,
0030,
ff36,
ff39,
fed5,
ff3d,
ffd7,
004c,
003c,
fede,
0076,
0004,
0083,
ffc4,
0051,
0087,
01ff,
00b1,
0219,
004b,
0013,
ffe7,
ffd7,
0109,
00c2,
ffe3,
0130,
008b,
003a,
ffff,
0182,
0085,
ffe6,
ffc7,
005b,
0041,
00cc,
ff43,
ff9c,
ffc1,
fe93,
000d,
fed7,
fe80,
ffba,
fe54,
fecd,
0017,
005a,
fef2,
ff27,
0080,
0051,
001b,
ff78,
ffab,
0008,
00ae,
004c,
007c,
00cc,
007f,
ffe0,
feeb,
0013,
0036,
fefc,
ff9a,
fe56,
ffdf,
fe91,
fed0,
ff3a,
0099,
ffae,
00a7,
00ff,
0127,
010a,
010f,
01cb,
0142,
0212,
0090,
00c8,
0066,
0057,
0020,
00b0,
0068,
0113,
0040,
0131,
0089,
00f4,
017d,
ffd7,
0031,
00a9,
ff2e,
00f8,
ff93,
fff5,
fec5,
ff3a,
ff7b,
ff38,
fe6c,
fe52,
ffa6,
ff60,
feb9,
fefb,
ffb3,
009a,
0045,
ffae,
ff3d,
ff8e,
001d,
ffa2,
005a,
ffb5,
ff31,
007a,
002a,
0004,
0035,
ff96,
002e,
ff7b,
fe7b,
ffd8,
fe67,
0004,
ff07,
0039,
ffd7,
00ae,
0080,
003e,
008f,
0119,
01d8,
0070,
0199,
01fe,
00d3,
0120,
00f1,
0100,
0101,
ff82,
014b,
ffd0,
00a7,
01ed,
0048,
00c5,
0122,
015c,
0093,
0133,
0029,
004a,
ffa7,
fee0,
ff7f,
fedb,
ff0a,
ff0e,
fe46,
ff95,
fe57,
fea2,
fecb,
ff20,
ff7f,
ff43,
00d1,
0056,
fffb,
ff6a,
000e,
ff49,
000e,
0088,
ffb0,
ff6b,
ff0e,
ffbd,
ffae,
ff2d,
ffc0,
ff4f,
fffb,
fed0,
febe,
fec0,
0005,
feea,
fee1,
ffcb,
ff6d,
010f,
ffe6,
011a,
005b,
0039,
00bb,
0013,
004a,
00b6,
0081,
0098,
ff28,
ffd6,
0152,
0117,
01c8,
020e,
002d,
00eb,
007c,
0184,
012a,
ff80,
ff8f,
ff34,
00a2,
001e,
ff55,
0024,
feda,
ff5a,
ff54,
ffae,
ff08,
fe8c,
0008,
0007,
ff47,
fecb,
0010,
ff21,
ff8d,
ff78,
ffcf,
00ed,
ff1f,
00ae,
00be,
0067,
ff7a,
ff6a,
fe82,
fef9,
0043,
ff07,
ff5e,
fe5f,
fefa,
fe87,
005e,
ffbe,
0113,
007f,
ffbc,
0034,
0062,
0136,
017f,
fffc,
00e2,
01d0,
00f5,
0012,
00fa,
007f,
0008,
0028,
ff5d,
002b,
00f9,
00d2,
01bd,
00cf,
01bd,
00a6,
00d2,
ffb8,
ffdc,
008b,
00dd,
0093,
0007,
ffe8,
ff4b,
ff82,
ff43,
fe65,
0003,
fea8,
fe90,
fff2,
ff7c,
0019,
fef2,
00d3,
008a,
ff2b,
007e,
ff93,
00c9,
ffaf,
007f,
ff55,
ffd9,
ff37,
fef7,
fec0,
ff92,
ffd6,
fff4,
ff4d,
ff8c,
0042,
ffd5,
ff06,
ff95,
00ee,
ffa2,
ffa3,
0094,
018d,
002e,
0115,
0177,
0010,
ffed,
00f6,
ff85,
00b5,
ff8d,
0106,
00c2,
0140,
0049,
0154,
0194,
003e,
01ce,
001d,
017b,
0122,
0087,
0112,
0035,
008b,
ff2f,
0011,
ffdf,
ff98,
0034,
004b,
fff2,
fede,
fff4,
fead,
ffa1,
ff1e,
ff7d,
ff17,
ff69,
fef6,
ff5c,
008a,
0060,
00b0,
ff76,
0011,
001a,
ff22,
fec8,
fece,
fed9,
ff60,
000c,
0020,
feed,
ffe4,
ff4c,
ff09,
007d,
ff6a,
0161,
010f,
00c5,
0011,
ffa9,
ffe3,
ffdd,
006c,
00aa,
ffe8,
00cb,
0024,
0098,
ffcd,
0042,
0000,
00a1,
00a6,
00d9,
0120,
004c,
00e2,
ffbc,
0101,
00a0,
ffed,
0082,
00cc,
ffe5,
ff46,
ffd4,
ffba,
0046,
000b,
fee5,
fedb,
004b,
ff98,
ff2d,
ff34,
ff38,
ff47,
ffbb,
ff4a,
fff0,
ff5e,
00a0,
ff44,
fec0,
002e,
ffd2,
ff43,
001e,
ff47,
ffd6,
ffb5,
fef0,
fff9,
0016,
febf,
ffa7,
00b6,
001d,
ffc4,
ffd3,
ffe4,
ff79,
0171,
fff6,
0137,
0021,
0121,
ff8c,
ff9a,
ffb7,
00f5,
006c,
00c2,
00e0,
ffd8,
0194,
00d9,
0069,
0086,
0080,
0070,
00ab,
017d,
fff2,
ff71,
ff9b,
ffb6,
fee6,
002b,
fff7,
fe89,
ffc2,
ffa3,
ffe8,
ff06,
fed8,
0006,
ff5e,
ff0b,
fee3,
ff8a,
0082,
fee7,
0074,
fff1,
002d,
0062,
fe9c,
ffaf,
ffb3,
fe8b,
ff7d,
ff0c,
fe3e,
fe4a,
ff20,
fe49,
febb,
0020,
ff59,
007d,
0018,
ffa7,
010d,
0078,
ff85,
014b,
ffa7,
ffe4,
007a,
ff99,
ffcc,
00ab,
ffcb,
007f,
ffe3,
ffa8,
009e,
0092,
0062,
00e4,
005a,
01b3,
0097,
01ab,
0161,
fffe,
000b,
ff91,
ffd3,
ff70,
0089,
fe84,
ff02,
0004,
fe8e,
ff58,
fe5a,
ff31,
0033,
ff01,
ffdd,
ffa1,
ff6e,
ffa9,
002a,
008f,
0072,
ffff,
ff40,
fe92,
ff98,
fe39,
feb8,
fee6,
fe12,
ffbb,
ffbc,
fec1,
ff37,
ff42,
0010,
ff34,
001b,
00c9,
0015,
ff52,
ff66,
0005,
0026,
002e,
00ce,
0024,
004e,
ffd7,
ff1c,
ff5a,
ff61,
0008,
00b4,
00db,
ffda,
009c,
ffcc,
00cf,
00cc,
00a9,
ffb4,
ff98,
0154,
00b1,
00c9,
ffef,
fffc,
001a,
ffc5,
ffb6,
fec1,
000c,
fff5,
ffce,
fedd,
fecd,
000c,
ff92,
fe79,
ff38,
ffe7,
ff58,
ffd0,
ffe8,
ff7a,
fe7d,
ff71,
fe8d,
ff6f,
ff0d,
fe74,
fe5b,
ff79,
fef1,
fed6,
fe67,
fe3c,
0001,
ffba,
001e,
fee6,
0030,
0033,
003c,
fffd,
0005,
007c,
ff6a,
0024,
ff67,
00ec,
ff4f,
00e1,
ff1a,
0024,
0084,
0060,
00d3,
ff2e,
00a9,
ffc3,
ff85,
0022,
ffdb,
0009,
00d7,
0088,
00fa,
ff32,
ff12,
0013,
fed4,
fee5,
ffb0,
ff30,
ff83,
ff5b,
ffc2,
fe69,
0013,
fe57,
ff1a,
003f,
ff98,
ff6f,
fec5,
0052,
fff0,
fe64,
ffde,
ff9b,
ff2e,
ffe0,
fe53,
ff0e,
fee2,
fdf1,
fe1a,
fdf3,
fe03,
fea7,
fec4,
fe5b,
003f,
ff35,
ffd8,
ff05,
ff67,
0080,
009f,
feef,
009a,
00e0,
ff72,
ff59,
ff76,
fec3,
ffb0,
ffda,
001e,
00d4,
ffe3,
ff58,
0053,
ff52,
ffb3,
00e2,
0074,
ff5b,
0029,
0053,
0082,
008e,
ffe3,
ff3f,
feae,
0073,
fef0,
fe53,
ff39,
ff1d,
ffe0,
feaa,
fe3c,
ff2e,
ff0b,
ffc3,
fe40,
ffba,
ff51,
0004,
ff37,
fee4,
feae,
fff9,
fe52,
ffbc,
fefd,
ff17,
fe62,
febd,
ff06,
fefe,
fdcd,
ffb6,
ff41,
ffd8,
feb7,
004f,
ffee,
fea7,
ff85,
ff12,
0034,
ff9b,
fef4,
ffe8,
ff53,
ffc7,
ff71,
fea3,
fef3,
ffc5,
ffc3,
ffad,
ff3c,
00b0,
0069,
00cf,
ffef,
00fd,
0077,
00dd,
ff25,
0096,
009b,
00a1,
ffd4,
00a7,
ffb8,
ff8b,
fe80,
ff1a,
ffc9,
ff03,
ffae,
fe9f,
fe88,
fe9a,
fed0,
fed0,
fff1,
fe7a,
fe54,
fe5a,
ff70,
fe55,
ff7e,
fe5c,
fe14,
fed3,
ff22,
fdc1,
ff18,
fd9a,
fdec,
ff71,
ff36,
fde6,
fff0,
ff56,
ff82,
fec0,
fed4,
0038,
ff03,
0059,
000f,
fea4,
fffc,
ff21,
0033,
ffb2,
ffc4,
ffd2,
fff7,
fefa,
ff43,
ffd2,
0039,
0023,
ff5e,
008c,
0023,
ffe1,
ff69,
0123,
0032,
ff7d,
0051,
ff37,
ff0f,
0045,
ff9b,
0035,
002c,
ff77,
fe0e,
ff0d,
ff33,
fe92,
ff7d,
ff1a,
feec,
ff23,
ffb3,
ff63,
fedf,
fea1,
ff90,
fe65,
fe38,
fe58,
ff12,
ff1e,
ff15,
fd4f,
fedd,
fe15,
ff64,
fe1f,
ffc8,
ff87,
ff1a,
ff4c,
ff3a,
ff60,
ffa2,
0002,
ff8a,
ffc8,
fee7,
001f,
ffff,
ff27,
0093,
ffc9,
fee6,
ff89,
ffbf,
feb3,
fef3,
ffd3,
fedf,
00d3,
ffc5,
ff87,
00ee,
011d,
00ef,
0043,
ffb5,
ffbb,
ff82,
ffdb,
ffc3,
00d0,
ff5c,
fff5,
ff16,
0022,
fe3a,
fe71,
fee0,
ffc8,
fef9,
ff8d,
fe98,
fec6,
ff89,
fe93,
fed2,
ff5d,
ffd7,
ffae,
fee6,
fe5b,
fe9d,
fde5,
fed0,
fd8b,
ff31,
feb6,
fdfa,
ff85,
fe54,
fecc,
fea0,
ff74,
fec5,
ff9b,
004c,
ff3c,
002a,
fffe,
ff59,
fee2,
ffc8,
ff07,
ff72,
ff91,
ff58,
ffc9,
ff8a,
ff51,
003d,
003d,
006c,
0014,
016b,
011a,
0017,
ffb0,
00bc,
fff0,
014c,
002d,
004f,
0168,
00b7,
00af,
000a,
0102,
00e4,
00dc,
ffb2,
ffe5,
ff82,
000a,
ffa0,
ffef,
0136,
00cc,
fff8,
0053,
0049,
00aa,
001e,
004d,
008b,
0003,
ffd6,
ffff,
010f,
0086,
00f5,
00c9,
0094,
00b6,
00dc,
0108,
ffb7,
0171,
0087,
0079,
ffba,
00bf,
ff9e,
014b,
008a,
00b8,
00c6,
0008,
00a7,
0152,
018c,
0146,
005f,
01d8,
0209,
0046,
0038,
0079,
00b3,
0130,
00a4,
ffb7,
0146,
ff85,
ffc0,
0011,
0028,
007f,
ff6f,
ffd1,
010f,
00ee,
ffc5,
ffe3,
ff69,
ff5e,
ffbc,
0003,
0021,
0138,
0103,
00ca,
00d1,
0155,
006f,
0180,
008e,
ffee,
00f7,
0148,
00e1,
fff6,
008b,
00e4,
0156,
001b,
ff9b,
0112,
ffbd,
012b,
0073,
ffe6,
016d,
0151,
0027,
ffdb,
000f,
0116,
0168,
007c,
011d,
0102,
ffe6,
0196,
00b8,
fff4,
01b1,
0080,
0067,
00ed,
0070,
00c6,
0057,
012d,
0049,
00a9,
0119,
ff8f,
00a3,
ff69,
0054,
0136,
00df,
ffe7,
ffea,
ff71,
ff7f,
ff2a,
ffb1,
004f,
0019,
0025,
0153,
006a,
0087,
ff8d,
00e3,
ffb1,
013c,
00e2,
0176,
0158,
00eb,
014d,
00ed,
0093,
ffda,
ffd7,
ff98,
00a9,
0094,
00f9,
0141,
ffb2,
014a,
ff6f,
0074,
0068,
00e1,
ff8b,
00fb,
0071,
001d,
0047,
0023,
0126,
ffc7,
000a,
017e,
00c5,
ffdf,
013e,
01a0,
01a0,
000d,
00bf,
0100,
0119,
ff97,
0001,
009f,
00f9,
012a,
0001,
007f,
ffef,
ff76,
00b7,
0048,
00d5,
0095,
ff75,
ff19,
00ae,
ffb6,
ffa4,
0128,
00d1,
ffa3,
fff5,
0095,
0092,
007c,
ffd6,
00b7,
ffc6,
0127,
ffe1,
0177,
00e8,
003a,
0112,
00f2,
ffbe,
00f3,
fffc,
ff4b,
0094,
011b,
0095,
00c4,
ff74,
ff59,
ff67,
00b0,
0086,
ff70,
fffe,
fff2,
0164,
0133,
00de,
0084,
fffe,
011e,
016e,
008e,
0092,
00dc,
008c,
00c9,
ff9d,
0002,
ff8a,
ff88,
006c,
ff66,
ff70,
fff8,
00fa,
ffb6,
0100,
004a,
00f0,
